unsigned char model[] = {
  0x1c, 0x00, 0x00, 0x00, 0x54, 0x46, 0x4c, 0x33, 0x14, 0x00, 0x20, 0x00,
  0x1c, 0x00, 0x18, 0x00, 0x14, 0x00, 0x10, 0x00, 0x0c, 0x00, 0x00, 0x00,
  0x08, 0x00, 0x04, 0x00, 0x14, 0x00, 0x00, 0x00, 0x1c, 0x00, 0x00, 0x00,
  0x98, 0x00, 0x00, 0x00, 0xf0, 0x00, 0x00, 0x00, 0x14, 0x47, 0x00, 0x00,
  0x24, 0x47, 0x00, 0x00, 0xfc, 0x4b, 0x00, 0x00, 0x03, 0x00, 0x00, 0x00,
  0x01, 0x00, 0x00, 0x00, 0x10, 0x00, 0x00, 0x00, 0x00, 0x00, 0x0a, 0x00,
  0x10, 0x00, 0x0c, 0x00, 0x08, 0x00, 0x04, 0x00, 0x0a, 0x00, 0x00, 0x00,
  0x0c, 0x00, 0x00, 0x00, 0x1c, 0x00, 0x00, 0x00, 0x3c, 0x00, 0x00, 0x00,
  0x0f, 0x00, 0x00, 0x00, 0x73, 0x65, 0x72, 0x76, 0x69, 0x6e, 0x67, 0x5f,
  0x64, 0x65, 0x66, 0x61, 0x75, 0x6c, 0x74, 0x00, 0x01, 0x00, 0x00, 0x00,
  0x04, 0x00, 0x00, 0x00, 0x90, 0xff, 0xff, 0xff, 0x09, 0x00, 0x00, 0x00,
  0x04, 0x00, 0x00, 0x00, 0x08, 0x00, 0x00, 0x00, 0x6f, 0x75, 0x74, 0x70,
  0x75, 0x74, 0x5f, 0x30, 0x00, 0x00, 0x00, 0x00, 0x01, 0x00, 0x00, 0x00,
  0x04, 0x00, 0x00, 0x00, 0x7a, 0xba, 0xff, 0xff, 0x04, 0x00, 0x00, 0x00,
  0x0e, 0x00, 0x00, 0x00, 0x6b, 0x65, 0x72, 0x61, 0x73, 0x5f, 0x74, 0x65,
  0x6e, 0x73, 0x6f, 0x72, 0x5f, 0x34, 0x00, 0x00, 0x02, 0x00, 0x00, 0x00,
  0x34, 0x00, 0x00, 0x00, 0x04, 0x00, 0x00, 0x00, 0xdc, 0xff, 0xff, 0xff,
  0x0c, 0x00, 0x00, 0x00, 0x04, 0x00, 0x00, 0x00, 0x13, 0x00, 0x00, 0x00,
  0x43, 0x4f, 0x4e, 0x56, 0x45, 0x52, 0x53, 0x49, 0x4f, 0x4e, 0x5f, 0x4d,
  0x45, 0x54, 0x41, 0x44, 0x41, 0x54, 0x41, 0x00, 0x08, 0x00, 0x0c, 0x00,
  0x08, 0x00, 0x04, 0x00, 0x08, 0x00, 0x00, 0x00, 0x0b, 0x00, 0x00, 0x00,
  0x04, 0x00, 0x00, 0x00, 0x13, 0x00, 0x00, 0x00, 0x6d, 0x69, 0x6e, 0x5f,
  0x72, 0x75, 0x6e, 0x74, 0x69, 0x6d, 0x65, 0x5f, 0x76, 0x65, 0x72, 0x73,
  0x69, 0x6f, 0x6e, 0x00, 0x0d, 0x00, 0x00, 0x00, 0x20, 0x46, 0x00, 0x00,
  0x18, 0x46, 0x00, 0x00, 0x08, 0x45, 0x00, 0x00, 0xf0, 0x04, 0x00, 0x00,
  0xdc, 0x04, 0x00, 0x00, 0xcc, 0x03, 0x00, 0x00, 0xbc, 0x02, 0x00, 0x00,
  0xac, 0x00, 0x00, 0x00, 0xa4, 0x00, 0x00, 0x00, 0x9c, 0x00, 0x00, 0x00,
  0x94, 0x00, 0x00, 0x00, 0x74, 0x00, 0x00, 0x00, 0x04, 0x00, 0x00, 0x00,
  0x2a, 0xbb, 0xff, 0xff, 0x04, 0x00, 0x00, 0x00, 0x60, 0x00, 0x00, 0x00,
  0x10, 0x00, 0x00, 0x00, 0x00, 0x00, 0x00, 0x00, 0x08, 0x00, 0x0e, 0x00,
  0x08, 0x00, 0x04, 0x00, 0x08, 0x00, 0x00, 0x00, 0x10, 0x00, 0x00, 0x00,
  0x24, 0x00, 0x00, 0x00, 0x00, 0x00, 0x06, 0x00, 0x08, 0x00, 0x04, 0x00,
  0x06, 0x00, 0x00, 0x00, 0x04, 0x00, 0x00, 0x00, 0x00, 0x00, 0x00, 0x00,
  0x0c, 0x00, 0x18, 0x00, 0x14, 0x00, 0x10, 0x00, 0x0c, 0x00, 0x04, 0x00,
  0x0c, 0x00, 0x00, 0x00, 0x81, 0x8d, 0xf9, 0x4a, 0x0a, 0xa9, 0xdc, 0x1b,
  0x02, 0x00, 0x00, 0x00, 0x02, 0x00, 0x00, 0x00, 0x04, 0x00, 0x00, 0x00,
  0x06, 0x00, 0x00, 0x00, 0x32, 0x2e, 0x31, 0x37, 0x2e, 0x31, 0x00, 0x00,
  0x96, 0xbb, 0xff, 0xff, 0x04, 0x00, 0x00, 0x00, 0x10, 0x00, 0x00, 0x00,
  0x31, 0x2e, 0x35, 0x2e, 0x30, 0x00, 0x00, 0x00, 0x00, 0x00, 0x00, 0x00,
  0x00, 0x00, 0x00, 0x00, 0xe4, 0xb5, 0xff, 0xff, 0xe8, 0xb5, 0xff, 0xff,
  0xec, 0xb5, 0xff, 0xff, 0xbe, 0xbb, 0xff, 0xff, 0x04, 0x00, 0x00, 0x00,
  0x00, 0x02, 0x00, 0x00, 0x47, 0x5e, 0x73, 0xbe, 0x78, 0x52, 0x84, 0xbd,
  0xb0, 0xc7, 0xf2, 0xbd, 0x6a, 0xf7, 0x94, 0xbe, 0xbb, 0xc4, 0xe4, 0x3d,
  0x0d, 0x5b, 0xb9, 0xbd, 0x3b, 0x14, 0x1d, 0x3e, 0x98, 0x3f, 0x1e, 0x3d,
  0xa4, 0xed, 0x01, 0x3e, 0x01, 0x77, 0x67, 0xbd, 0x78, 0x7c, 0x98, 0xb9,
  0x56, 0x1c, 0x70, 0xbe, 0xf8, 0x65, 0xe9, 0xbc, 0xdc, 0xc4, 0x0c, 0x3e,
  0x11, 0x6c, 0x1f, 0x3e, 0x49, 0x39, 0xd9, 0xbd, 0x8d, 0x21, 0x90, 0x3d,
  0x34, 0x4a, 0x20, 0xbe, 0x9b, 0x6e, 0x77, 0x3e, 0xfc, 0x65, 0x87, 0x3e,
  0x51, 0x50, 0xe2, 0x3d, 0x36, 0xa3, 0x66, 0x3e, 0x09, 0xf6, 0x4a, 0xbd,
  0x55, 0x79, 0xe8, 0x3d, 0xfa, 0xfc, 0xfd, 0xbd, 0xff, 0xe2, 0x19, 0x3d,
  0x7a, 0xee, 0x53, 0x3d, 0x18, 0x26, 0x66, 0xbe, 0x24, 0x92, 0x3e, 0xbe,
  0xae, 0xac, 0x25, 0xbe, 0x07, 0x35, 0xc2, 0xbd, 0x80, 0xfd, 0xe9, 0x3d,
  0x9d, 0x28, 0x13, 0xbe, 0xfa, 0x33, 0x11, 0xbd, 0x33, 0x46, 0x26, 0x3e,
  0x11, 0xd0, 0x38, 0x3e, 0xe7, 0x02, 0x7a, 0xbe, 0x39, 0xd6, 0xfa, 0xbd,
  0x28, 0xe9, 0xef, 0xbd, 0x66, 0x8c, 0x2f, 0x3d, 0xbf, 0x1b, 0x05, 0x3e,
  0x37, 0xa8, 0xe6, 0xbd, 0x3f, 0x6a, 0x4e, 0x3e, 0xd5, 0x33, 0xbe, 0x3d,
  0x67, 0xa1, 0x1e, 0xbe, 0x73, 0xe1, 0x2f, 0x3d, 0x72, 0x17, 0x5b, 0xbc,
  0xe6, 0x88, 0x2d, 0x3e, 0x2e, 0x86, 0x7c, 0x3d, 0xb9, 0x17, 0x62, 0xbe,
  0x98, 0xed, 0x0c, 0xbe, 0x1f, 0x76, 0x39, 0x3d, 0xa8, 0xd5, 0xbf, 0x3d,
  0x58, 0x36, 0x4a, 0xbe, 0xee, 0xdf, 0x23, 0x3e, 0x4d, 0x98, 0xdf, 0xbd,
  0xe9, 0x85, 0x15, 0xbe, 0x27, 0x68, 0xaf, 0x3d, 0x32, 0x7b, 0x36, 0x3e,
  0x8f, 0xe6, 0x31, 0x3d, 0xd4, 0xc8, 0x2e, 0xbd, 0xd0, 0x53, 0xd0, 0x3d,
  0xac, 0xe2, 0x74, 0x3e, 0xbf, 0xef, 0x80, 0x3e, 0x77, 0xe3, 0x50, 0x3e,
  0xd4, 0xd0, 0x5d, 0x3e, 0x29, 0x70, 0x0d, 0x3d, 0x96, 0x52, 0x37, 0x3e,
  0x7b, 0x13, 0x61, 0xbd, 0x9d, 0xf1, 0x5c, 0xbe, 0xc1, 0x34, 0xbe, 0xbd,
  0xf7, 0x15, 0x86, 0xbe, 0x97, 0xb9, 0xa7, 0xbd, 0x70, 0x47, 0x94, 0x3d,
  0x9a, 0xb4, 0x72, 0x3e, 0x86, 0xa7, 0x80, 0x3e, 0x5e, 0x9d, 0x76, 0xbe,
  0xeb, 0x37, 0x6e, 0xbe, 0x34, 0x83, 0x94, 0xbd, 0xa1, 0xb1, 0xaa, 0x3d,
  0x58, 0xfa, 0x42, 0x3e, 0x87, 0xf8, 0x17, 0x3e, 0x72, 0xc4, 0xdd, 0x3d,
  0xb5, 0x1c, 0x48, 0xbe, 0x1f, 0x3b, 0x31, 0x3e, 0x07, 0xac, 0x6c, 0x3e,
  0x95, 0x2b, 0xe5, 0x3d, 0x9d, 0x0d, 0x2c, 0xbe, 0x23, 0x28, 0xcc, 0x3d,
  0x3f, 0x0a, 0x24, 0xbe, 0x80, 0x5c, 0x6c, 0x3e, 0x37, 0x68, 0x74, 0x3e,
  0x84, 0xe9, 0x58, 0xbd, 0xcd, 0x15, 0x8d, 0xbe, 0x9e, 0x9b, 0x59, 0xbe,
  0x7f, 0xc0, 0xda, 0xbd, 0xee, 0x46, 0xa8, 0x3a, 0x0c, 0xad, 0x1d, 0x3e,
  0xb6, 0x5b, 0xf4, 0x3d, 0x51, 0x83, 0xd8, 0xbd, 0xe0, 0x0d, 0x28, 0x3e,
  0x8d, 0x87, 0xeb, 0x3d, 0x53, 0xd2, 0xd3, 0xbd, 0xbe, 0x4c, 0x8d, 0xbe,
  0x10, 0xb6, 0xcc, 0x3d, 0x78, 0x9d, 0x16, 0xbe, 0x50, 0xfc, 0x0d, 0x3e,
  0xa4, 0xd4, 0x63, 0x3e, 0xd6, 0x54, 0x54, 0x3e, 0x64, 0x11, 0x68, 0x3e,
  0xf1, 0xe3, 0x93, 0xbd, 0xef, 0x27, 0xce, 0x3d, 0x00, 0x24, 0xc3, 0x3b,
  0x44, 0xfd, 0x86, 0xbe, 0xdb, 0xba, 0x25, 0xbd, 0xe0, 0xaa, 0x24, 0x3e,
  0xee, 0xcd, 0x4e, 0x3d, 0x7a, 0x18, 0x42, 0xbe, 0x85, 0xa3, 0x27, 0x3e,
  0x44, 0xa4, 0x35, 0x3e, 0x52, 0x40, 0x63, 0x3c, 0xb9, 0xf5, 0x30, 0x3e,
  0x49, 0xe1, 0x8e, 0x3c, 0xfc, 0x37, 0x4f, 0x3e, 0xad, 0x3e, 0x46, 0x3d,
  0x8a, 0x64, 0x38, 0xbe, 0x83, 0x87, 0xa8, 0xbd, 0x46, 0x0c, 0x1c, 0x3e,
  0xca, 0xbd, 0xff, 0xff, 0x04, 0x00, 0x00, 0x00, 0x00, 0x01, 0x00, 0x00,
  0x52, 0x56, 0xd4, 0x3e, 0x53, 0x91, 0xce, 0x3e, 0x0f, 0xa2, 0xa8, 0x3e,
  0x06, 0x14, 0xae, 0x3e, 0xb1, 0x91, 0xac, 0x3e, 0xe1, 0xc3, 0xbf, 0x3e,
  0x37, 0xca, 0xc2, 0x3e, 0xcb, 0x5d, 0xdf, 0x3e, 0xda, 0x17, 0xad, 0x3e,
  0xf6, 0xec, 0xc6, 0x3e, 0x8e, 0xce, 0xcd, 0x3e, 0xfe, 0xde, 0xbc, 0x3e,
  0x18, 0x1d, 0xb1, 0x3e, 0xaa, 0x6b, 0xc7, 0x3e, 0xde, 0x71, 0x88, 0x3e,
  0x6a, 0xac, 0xbb, 0x3e, 0x53, 0xcf, 0x87, 0x3e, 0x29, 0x31, 0xa3, 0x3e,
  0x0f, 0xf3, 0xc6, 0x3e, 0x67, 0x71, 0xb0, 0x3e, 0xcf, 0xf1, 0xc6, 0x3e,
  0x41, 0xd8, 0xc9, 0x3e, 0x1f, 0xf5, 0xd0, 0x3e, 0xb6, 0x23, 0xca, 0x3e,
  0x22, 0xd8, 0xc8, 0x3e, 0x00, 0x8e, 0xc8, 0x3e, 0xe8, 0x6c, 0xd3, 0x3e,
  0x4c, 0x55, 0xdd, 0x3e, 0x03, 0x1b, 0xd7, 0x3e, 0x0e, 0xb1, 0xca, 0x3e,
  0x2f, 0xbc, 0xa7, 0x3e, 0xd5, 0xb7, 0xd6, 0x3e, 0xd3, 0x43, 0xc3, 0x3e,
  0x2c, 0xa7, 0xb0, 0x3e, 0x62, 0x20, 0xae, 0x3e, 0x50, 0xd2, 0xc7, 0x3e,
  0x43, 0x87, 0xac, 0x3e, 0xea, 0x60, 0xd4, 0x3e, 0xee, 0xbb, 0xaf, 0x3e,
  0x58, 0x4f, 0xaf, 0x3e, 0xaf, 0xbf, 0xbd, 0x3e, 0x62, 0x56, 0xdd, 0x3e,
  0xbc, 0xa5, 0xcb, 0x3e, 0x9a, 0x4a, 0xd1, 0x3e, 0x6b, 0x2b, 0xc1, 0x3e,
  0x0a, 0x41, 0xd4, 0x3e, 0x81, 0x3c, 0xd4, 0x3e, 0x90, 0xd8, 0xb1, 0x3e,
  0x98, 0x80, 0xb6, 0x3e, 0x43, 0x97, 0xba, 0x3e, 0xb4, 0xba, 0xa6, 0x3e,
  0x5c, 0x69, 0xc9, 0x3e, 0x0c, 0x75, 0xbb, 0x3e, 0x51, 0x8e, 0xc8, 0x3e,
  0x0e, 0x9f, 0xbd, 0x3e, 0x69, 0xbd, 0xc1, 0x3e, 0xc6, 0xb9, 0xcf, 0x3e,
  0xb3, 0x59, 0xd1, 0x3e, 0xe5, 0x93, 0xb2, 0x3e, 0x05, 0xd5, 0xa0, 0x3e,
  0xa9, 0x97, 0xbf, 0x3e, 0xc7, 0xf9, 0xd1, 0x3e, 0x50, 0x99, 0xa8, 0x3e,
  0x76, 0xa1, 0xd4, 0x3e, 0xd6, 0xbe, 0xff, 0xff, 0x04, 0x00, 0x00, 0x00,
  0x00, 0x01, 0x00, 0x00, 0x48, 0x87, 0xbb, 0xbc, 0x38, 0xb9, 0x38, 0xbc,
  0x48, 0x38, 0x97, 0x3e, 0xfb, 0x7d, 0x98, 0x3e, 0x5c, 0x88, 0xc1, 0xbc,
  0x58, 0xb3, 0x70, 0xbc, 0xd8, 0xf2, 0x16, 0xbc, 0x30, 0xaf, 0xbf, 0xbc,
  0x24, 0x3e, 0x4f, 0xbb, 0xb6, 0xe2, 0x99, 0x3e, 0x67, 0x86, 0x98, 0x3e,
  0x74, 0x31, 0x96, 0x3e, 0x73, 0x4e, 0x98, 0x3e, 0xfd, 0xc7, 0xa3, 0xbc,
  0x96, 0xc4, 0x97, 0x3e, 0xec, 0x01, 0x1b, 0xbc, 0xd6, 0xc8, 0x95, 0x3e,
  0xe6, 0xea, 0x09, 0xbc, 0xca, 0x26, 0x97, 0x3e, 0x48, 0xd3, 0x97, 0x3e,
  0x17, 0xd3, 0x98, 0x3e, 0x29, 0x42, 0x97, 0x3e, 0xc9, 0xd6, 0xa6, 0xbc,
  0x56, 0xca, 0xf0, 0xbc, 0x0e, 0x5d, 0x98, 0x3e, 0x4f, 0xc5, 0x98, 0x3e,
  0x5c, 0x4a, 0x0c, 0xbc, 0x90, 0x74, 0x98, 0x3e, 0x70, 0x20, 0x9d, 0x3e,
  0x37, 0xf8, 0x96, 0x3e, 0x33, 0x40, 0xd6, 0xbc, 0xc5, 0xfe, 0x95, 0x3e,
  0x65, 0xc3, 0xfc, 0xbc, 0xee, 0x86, 0x9f, 0x3e, 0x07, 0x7f, 0xce, 0xbc,
  0x49, 0x28, 0xa1, 0xbc, 0xf6, 0xfe, 0x89, 0xbc, 0x86, 0x3e, 0x95, 0x3e,
  0x11, 0x8d, 0xd0, 0xbc, 0x5f, 0xa1, 0x1e, 0xbd, 0x07, 0x81, 0x9b, 0x3e,
  0xcb, 0x51, 0xef, 0xbc, 0x40, 0x2b, 0x2a, 0xbd, 0x1b, 0x3b, 0x99, 0x3e,
  0x45, 0x80, 0x1b, 0xbd, 0x80, 0x60, 0xc3, 0xbc, 0x5f, 0x92, 0xbc, 0xbc,
  0x85, 0xd5, 0x98, 0x3e, 0x6e, 0xc5, 0x85, 0xbc, 0x79, 0x50, 0x96, 0x3e,
  0x36, 0x3e, 0x4f, 0xbb, 0xf9, 0xed, 0x95, 0x3e, 0xac, 0x0c, 0x93, 0xbc,
  0x73, 0x61, 0x9a, 0x3e, 0x74, 0x3d, 0x4f, 0xbb, 0x31, 0x87, 0xaf, 0xbb,
  0x22, 0x7b, 0x3f, 0xbc, 0x15, 0x04, 0x94, 0x3e, 0xf1, 0x64, 0x97, 0x3e,
  0x6c, 0xfb, 0x62, 0xbc, 0x2c, 0x4e, 0x99, 0x3e, 0x11, 0x71, 0x83, 0x3e,
  0x30, 0xa5, 0x97, 0x3e, 0xf9, 0xcc, 0x94, 0x3e, 0xe2, 0xbf, 0xff, 0xff,
  0x04, 0x00, 0x00, 0x00, 0x04, 0x00, 0x00, 0x00, 0xe1, 0x43, 0x92, 0x3e,
  0xf2, 0xbf, 0xff, 0xff, 0x04, 0x00, 0x00, 0x00, 0x00, 0x40, 0x00, 0x00,
  0xdf, 0x34, 0x2d, 0xbc, 0xb7, 0x7b, 0xe7, 0x3c, 0x5f, 0xcb, 0xa9, 0xbd,
  0xbc, 0x69, 0x3c, 0xbe, 0x35, 0xaf, 0x37, 0x3e, 0x54, 0x9f, 0x3a, 0xbe,
  0xd2, 0xc5, 0x3b, 0xbe, 0xaf, 0xb6, 0x07, 0x3e, 0xa6, 0x28, 0x8a, 0xbd,
  0xc5, 0x19, 0xdd, 0xbd, 0xc1, 0x58, 0xa8, 0xbc, 0xd7, 0x5a, 0x04, 0x3e,
  0x6a, 0x9f, 0x70, 0x3d, 0x51, 0x13, 0xd8, 0xbd, 0x4c, 0xf3, 0xa6, 0xbd,
  0x8f, 0x24, 0x81, 0xbd, 0x9d, 0x01, 0xa5, 0xbd, 0x4f, 0x88, 0x03, 0xbe,
  0x4e, 0x53, 0xf1, 0x3d, 0x64, 0xa1, 0x5f, 0xbe, 0x82, 0x30, 0x2e, 0x3e,
  0xf4, 0x32, 0x76, 0x3d, 0x0d, 0x7a, 0x94, 0x3d, 0xbf, 0xcd, 0x0c, 0x3e,
  0x73, 0xb7, 0xa3, 0xbd, 0x0e, 0xf5, 0xde, 0x3d, 0x88, 0x45, 0x47, 0xbe,
  0x3a, 0xaf, 0xa1, 0xbd, 0x36, 0x09, 0xc8, 0x3d, 0xa7, 0x78, 0x0c, 0x3d,
  0x1f, 0x57, 0x92, 0xbd, 0x7c, 0x93, 0x63, 0xbe, 0xd0, 0x47, 0x8f, 0xbd,
  0xe5, 0x25, 0xf7, 0xbd, 0xf0, 0xe1, 0xde, 0x3d, 0x71, 0xdb, 0x5b, 0xbe,
  0xa7, 0x83, 0x74, 0xbe, 0x04, 0xff, 0x2f, 0x3e, 0xe2, 0xd4, 0x91, 0x3d,
  0x5c, 0x74, 0x33, 0x3e, 0x5b, 0x76, 0x36, 0x3d, 0x7b, 0x23, 0x41, 0x3e,
  0x4e, 0xa5, 0x25, 0x3d, 0x9d, 0x74, 0x53, 0xbe, 0xdc, 0x3c, 0x4b, 0xbd,
  0x6f, 0xc7, 0x39, 0x3e, 0x8b, 0x67, 0xb8, 0xbd, 0xa3, 0x41, 0x65, 0xbd,
  0xdf, 0x0a, 0x12, 0xbe, 0x7c, 0xa1, 0xa4, 0xbd, 0x04, 0x1c, 0x26, 0x3e,
  0xb9, 0x0c, 0x18, 0x3e, 0xe0, 0xa9, 0x36, 0x3e, 0x6b, 0xa8, 0x42, 0x3e,
  0x31, 0x64, 0xfb, 0xbd, 0x21, 0x3b, 0x27, 0xbd, 0x0c, 0x09, 0xeb, 0x3d,
  0x36, 0xc0, 0x16, 0x3e, 0x3e, 0x9c, 0x2f, 0x3e, 0xc4, 0x06, 0x0d, 0xbe,
  0xfd, 0x23, 0x79, 0xbd, 0x98, 0x17, 0xa4, 0xbd, 0x2d, 0x26, 0xb5, 0xbd,
  0xf3, 0x4e, 0x50, 0xbe, 0x6e, 0x3a, 0x8d, 0x3c, 0x64, 0xdb, 0x08, 0xbe,
  0xb6, 0xae, 0x50, 0xbe, 0x63, 0x1e, 0x44, 0x3e, 0xc0, 0x2d, 0xf8, 0xbb,
  0x64, 0xea, 0x7c, 0xbd, 0x22, 0x99, 0x64, 0x3d, 0xb0, 0xc8, 0x0a, 0x3c,
  0x8e, 0x93, 0x4e, 0xbe, 0x60, 0xf9, 0x17, 0xbd, 0xe3, 0x97, 0x5d, 0xbe,
  0x4a, 0x76, 0x43, 0xbc, 0x5e, 0xe3, 0xa5, 0x3d, 0xab, 0xe5, 0x3c, 0xbe,
  0x76, 0x2d, 0x3a, 0xbe, 0x07, 0xa7, 0x76, 0xbc, 0xbc, 0xf0, 0xfa, 0x3c,
  0x71, 0xcb, 0x0b, 0xbe, 0x32, 0x8b, 0x06, 0x3e, 0x28, 0x7f, 0xac, 0xbd,
  0x0e, 0x23, 0x92, 0x3d, 0xa4, 0xdd, 0x12, 0x3d, 0xe3, 0x90, 0x98, 0x3d,
  0x5e, 0xa2, 0xf2, 0xbc, 0xa8, 0xbc, 0x43, 0xbd, 0xfe, 0x79, 0x80, 0x3d,
  0x64, 0xb1, 0x31, 0xbe, 0x23, 0x15, 0x14, 0x3e, 0x28, 0x67, 0x66, 0x3d,
  0xd0, 0x7a, 0x35, 0x3c, 0xae, 0xc9, 0xb2, 0xbd, 0x46, 0x40, 0x1d, 0x3e,
  0x41, 0x1c, 0x39, 0xbe, 0x5b, 0x14, 0xea, 0x3c, 0x54, 0xa6, 0x39, 0xbe,
  0x6b, 0xd2, 0x28, 0xbd, 0x4a, 0x87, 0x44, 0x3e, 0x80, 0xe3, 0x88, 0xbd,
  0xe6, 0xd1, 0x87, 0xbb, 0x1d, 0xe2, 0x0f, 0xbe, 0x83, 0x15, 0x37, 0xbe,
  0x57, 0xd2, 0x53, 0x3e, 0xbe, 0x50, 0xaa, 0x3d, 0x8e, 0x99, 0x90, 0x3d,
  0xa3, 0x5b, 0x33, 0xbe, 0xd5, 0x87, 0x45, 0xbe, 0xfb, 0x6a, 0x21, 0x3e,
  0x6e, 0x02, 0x39, 0xbe, 0x61, 0x25, 0x25, 0x3d, 0xe4, 0xd1, 0x17, 0xbe,
  0x55, 0x96, 0xdb, 0xbd, 0xf6, 0x8b, 0x90, 0xbd, 0x42, 0x3c, 0x8e, 0xbd,
  0xe6, 0xf6, 0x58, 0x3d, 0x24, 0xd3, 0x24, 0xbe, 0x54, 0x80, 0x6b, 0xbd,
  0x22, 0x02, 0x89, 0xbd, 0x4c, 0x45, 0x47, 0x3e, 0x40, 0x17, 0xbe, 0xbc,
  0xf7, 0x1e, 0x8c, 0xbd, 0xaa, 0x2a, 0x08, 0xbe, 0x7a, 0xcb, 0x5b, 0xbe,
  0x0c, 0xb3, 0xb0, 0xbd, 0x8c, 0x90, 0x19, 0xbd, 0x93, 0x48, 0xfe, 0x3d,
  0x4a, 0x8b, 0x6b, 0x3e, 0xe8, 0x6b, 0xe8, 0x3d, 0x0a, 0xd5, 0xbd, 0x3e,
  0xc8, 0x7f, 0x75, 0xbb, 0xd5, 0x49, 0x67, 0x3e, 0xe7, 0x22, 0xcf, 0x3e,
  0xda, 0x7e, 0x2a, 0x3e, 0xb1, 0x9d, 0xd0, 0x3e, 0xde, 0x45, 0x89, 0x3a,
  0xed, 0xe8, 0xaa, 0x3e, 0x19, 0xd8, 0xc5, 0x3e, 0x17, 0xe6, 0xc1, 0x3d,
  0x5f, 0xe9, 0xb6, 0x3d, 0x45, 0xe3, 0x92, 0x3e, 0x88, 0xe4, 0x30, 0x3e,
  0xef, 0x3a, 0x60, 0x3d, 0x71, 0x8b, 0x1a, 0x3e, 0x11, 0x55, 0xc0, 0x3e,
  0xb7, 0x9b, 0x78, 0x3e, 0x53, 0xdb, 0xa0, 0x3e, 0xa8, 0x93, 0x66, 0x3d,
  0xd5, 0xb4, 0x0a, 0x3e, 0xb2, 0xbb, 0xc4, 0x3c, 0x9a, 0x42, 0xdb, 0x3d,
  0xc4, 0x59, 0x61, 0x3e, 0xca, 0x83, 0x9c, 0x3e, 0xdc, 0x85, 0xf1, 0xbd,
  0x2f, 0x6f, 0xf1, 0x3d, 0x43, 0x0f, 0xaa, 0x3d, 0x8b, 0x81, 0xd6, 0x3c,
  0xc1, 0x36, 0xcb, 0x3e, 0xf6, 0x31, 0x03, 0x3e, 0x22, 0x7d, 0x2b, 0x3e,
  0xd7, 0x81, 0xa2, 0x3e, 0x3b, 0xd3, 0xd9, 0x3e, 0xdf, 0x95, 0x00, 0x3e,
  0x17, 0x66, 0xdb, 0x3e, 0x3d, 0xdf, 0xd3, 0x3e, 0x17, 0xdc, 0x64, 0x3e,
  0x90, 0x40, 0xe2, 0x3e, 0x9c, 0x67, 0x61, 0x3e, 0x14, 0xf3, 0x58, 0x3d,
  0x79, 0xa7, 0x72, 0x3e, 0xb0, 0x76, 0xd2, 0x3e, 0x54, 0x9e, 0x7d, 0x3e,
  0x6e, 0x1d, 0xb9, 0x3b, 0xa7, 0xbb, 0x17, 0x3e, 0xd6, 0xf5, 0x2b, 0x3e,
  0x70, 0xbe, 0x73, 0x3e, 0x26, 0x47, 0x15, 0x3e, 0x0c, 0x6b, 0x7f, 0x3e,
  0x33, 0x97, 0x6d, 0x3e, 0x8a, 0x99, 0xce, 0x3c, 0x61, 0x3f, 0x52, 0x3e,
  0x48, 0x51, 0x65, 0x3e, 0x4e, 0x96, 0xf3, 0x3c, 0x9c, 0xdf, 0x6d, 0x3e,
  0x5e, 0x66, 0x89, 0x3e, 0xaf, 0x77, 0x45, 0x3e, 0x04, 0x03, 0x01, 0x3e,
  0xc6, 0x44, 0x77, 0x3e, 0x63, 0x1e, 0xb1, 0x3e, 0x3e, 0x37, 0xeb, 0x3c,
  0xa4, 0xfd, 0xa9, 0x3e, 0x96, 0x41, 0xc0, 0x3e, 0x46, 0x6d, 0xe4, 0x3d,
  0xf3, 0xca, 0xb8, 0x3c, 0xa5, 0x85, 0x98, 0x3e, 0xd7, 0xce, 0xd3, 0x3e,
  0x54, 0x25, 0x1f, 0x3c, 0xae, 0x2a, 0xab, 0xbc, 0xd5, 0x12, 0xb3, 0x3e,
  0x68, 0xae, 0x29, 0x3e, 0xd1, 0x01, 0x74, 0x3e, 0xa7, 0x74, 0xd6, 0x3e,
  0x0d, 0xd4, 0x97, 0x3e, 0x44, 0x6b, 0x05, 0x3b, 0x1d, 0x41, 0xbd, 0x3e,
  0x51, 0x33, 0x5e, 0x3e, 0x76, 0x59, 0x1a, 0x3e, 0xfa, 0x22, 0xbb, 0x3e,
  0x27, 0xc2, 0x8c, 0x3c, 0x71, 0xc8, 0x96, 0x3e, 0xcd, 0x59, 0xb4, 0x3e,
  0xe8, 0x34, 0x46, 0x3e, 0x5f, 0xce, 0x25, 0x3e, 0x1e, 0x84, 0x14, 0x3e,
  0x1d, 0x51, 0xa7, 0x3e, 0xe0, 0x5d, 0x84, 0x3e, 0xba, 0xea, 0x8d, 0x3e,
  0xc7, 0x97, 0xae, 0x3d, 0x17, 0x02, 0x9b, 0x3d, 0x17, 0x20, 0x18, 0x3e,
  0xb5, 0xc0, 0x75, 0x3e, 0x60, 0x84, 0x3a, 0x3e, 0xfb, 0x08, 0x2e, 0x3e,
  0x50, 0x73, 0xe9, 0x3e, 0x2e, 0x6b, 0x29, 0x3e, 0xd0, 0x91, 0xaf, 0x3e,
  0x43, 0xc2, 0x86, 0x3e, 0x05, 0x7d, 0x1a, 0x3e, 0xf4, 0xee, 0xb3, 0x3e,
  0x91, 0xb8, 0x02, 0x3e, 0x45, 0xbe, 0xa6, 0x3e, 0xc9, 0x75, 0x2a, 0x3e,
  0xd6, 0x2f, 0xc2, 0x3e, 0xa4, 0xde, 0x66, 0x3e, 0x9f, 0xb7, 0x4f, 0x3d,
  0x98, 0x83, 0x83, 0x3e, 0x63, 0xc4, 0xfc, 0x3d, 0xa4, 0x00, 0xe0, 0x3e,
  0x32, 0xac, 0x46, 0x3d, 0xfe, 0xfb, 0x4a, 0x3e, 0x7f, 0x4e, 0xaa, 0x3e,
  0x18, 0xb4, 0x17, 0x3e, 0x9e, 0x8a, 0xda, 0x3d, 0x42, 0xc6, 0xa8, 0x3c,
  0x26, 0x3b, 0x92, 0x3e, 0x93, 0x18, 0x18, 0x3e, 0xc4, 0x1e, 0xae, 0x3e,
  0xbb, 0x16, 0x8d, 0x3a, 0x2f, 0x0a, 0xde, 0x3e, 0x28, 0x8e, 0xcb, 0x3e,
  0x0d, 0xb9, 0x7e, 0x3e, 0xbd, 0x5b, 0xd7, 0x3d, 0x2a, 0xaf, 0x08, 0x3e,
  0x52, 0x26, 0x2b, 0xbd, 0xab, 0x9a, 0xf6, 0x3d, 0x8f, 0xf8, 0x4c, 0x3d,
  0x2e, 0xd1, 0x84, 0x3d, 0x62, 0x20, 0x76, 0x3d, 0xfd, 0x0f, 0x3a, 0x3e,
  0xa5, 0x72, 0x72, 0xbe, 0xf5, 0x45, 0x13, 0xbe, 0xe3, 0x5a, 0x19, 0x3d,
  0x6c, 0x0a, 0xf5, 0x3d, 0x13, 0xb0, 0xd4, 0xbd, 0x90, 0xe2, 0xab, 0x3d,
  0xf6, 0x99, 0xc6, 0xbb, 0xa2, 0x3a, 0xf1, 0x3d, 0x90, 0xbd, 0x45, 0x3e,
  0xa2, 0x65, 0x37, 0xbe, 0x76, 0xe4, 0xc2, 0xbc, 0x9f, 0x93, 0x15, 0x3e,
  0xe0, 0xf9, 0x12, 0x3e, 0x67, 0x23, 0xcd, 0xbd, 0x9f, 0x20, 0x00, 0xbe,
  0x72, 0x56, 0xbf, 0xbd, 0x13, 0x9b, 0x4d, 0xbe, 0xa8, 0xb4, 0xea, 0x3b,
  0xbe, 0x4c, 0x1e, 0x3e, 0xc4, 0x25, 0x3b, 0xbc, 0x03, 0xce, 0xf6, 0x3d,
  0x38, 0x02, 0x63, 0xbe, 0xc6, 0xa8, 0x88, 0xbd, 0x4d, 0x77, 0x24, 0xbe,
  0xc0, 0x46, 0xbd, 0xbd, 0x8f, 0xbd, 0xa2, 0xbd, 0xac, 0x68, 0x95, 0xbd,
  0x3e, 0x1d, 0x6a, 0xbd, 0x84, 0xd9, 0x02, 0xbe, 0x95, 0x0c, 0x19, 0x3d,
  0x84, 0x29, 0x58, 0x3d, 0x74, 0x10, 0x00, 0x3e, 0xe5, 0xec, 0x8c, 0xbb,
  0xe6, 0x17, 0x56, 0xbe, 0xd4, 0x0a, 0xfc, 0xbd, 0x78, 0xd5, 0x03, 0x3e,
  0x91, 0x42, 0x2b, 0x3e, 0xf9, 0xbb, 0x5e, 0xbe, 0x9d, 0x49, 0xdc, 0xbd,
  0x80, 0x32, 0xab, 0xbc, 0x64, 0xf7, 0x11, 0x3e, 0xf1, 0xdf, 0x8f, 0xbd,
  0x41, 0x17, 0x10, 0x3e, 0xe1, 0x6c, 0xd3, 0x3d, 0xdd, 0x82, 0xbe, 0xbd,
  0xc4, 0xd2, 0x36, 0x3e, 0xf3, 0xc2, 0x1d, 0xbe, 0x07, 0xc3, 0x32, 0xbe,
  0x14, 0x0a, 0x1a, 0x3e, 0x17, 0x7b, 0x12, 0x3e, 0x1b, 0x8a, 0x08, 0x3e,
  0x0a, 0x2f, 0x15, 0x3e, 0xf4, 0xfd, 0x83, 0x3d, 0xbe, 0xd2, 0x08, 0x3e,
  0x17, 0xff, 0x28, 0xbe, 0x3e, 0x03, 0x58, 0xbe, 0xa0, 0xb0, 0x85, 0xbd,
  0x2b, 0x84, 0xbc, 0x3d, 0x5e, 0xfe, 0x14, 0x3d, 0x65, 0x05, 0x9f, 0xbd,
  0xb1, 0x27, 0x4d, 0xbe, 0x08, 0xe0, 0x9e, 0x3c, 0x9a, 0x3d, 0xed, 0xbd,
  0x58, 0xf5, 0x41, 0xbd, 0xef, 0x3c, 0x3a, 0xbe, 0x2b, 0x7c, 0xce, 0xbc,
  0xd1, 0x2a, 0x1c, 0xbe, 0xc0, 0xa4, 0x09, 0xbe, 0x52, 0x09, 0x12, 0xbe,
  0x94, 0x4b, 0x4f, 0xbd, 0xb7, 0x2d, 0x9e, 0x3d, 0x38, 0x0c, 0x2a, 0x3e,
  0x6c, 0x00, 0x2f, 0xbe, 0xdd, 0xc0, 0xa9, 0x3d, 0x70, 0xe9, 0x14, 0xbd,
  0xf4, 0x77, 0x28, 0x3e, 0x16, 0x22, 0x39, 0x3e, 0x8b, 0x6b, 0x2a, 0x3e,
  0x5c, 0x5e, 0x9e, 0xbc, 0xf8, 0xcb, 0xb7, 0xbd, 0x04, 0x5f, 0x3f, 0xbe,
  0x10, 0x63, 0xcf, 0x3d, 0xb9, 0x85, 0x1b, 0xbe, 0x27, 0xfd, 0x71, 0x3c,
  0xf8, 0x3e, 0xd2, 0xbd, 0x57, 0xe8, 0x2e, 0xbe, 0xb8, 0xc6, 0x3d, 0xbd,
  0xf4, 0xc1, 0xa5, 0x3d, 0xd5, 0xe7, 0x25, 0x3e, 0x17, 0x72, 0x53, 0xbe,
  0x15, 0xa1, 0x63, 0xbd, 0x37, 0x25, 0xf5, 0x3d, 0x3a, 0xb5, 0x62, 0xbe,
  0xd6, 0x1b, 0x37, 0x3d, 0xf7, 0xbb, 0xe3, 0x3d, 0x8d, 0x79, 0xac, 0xbd,
  0xea, 0xb1, 0x32, 0xbe, 0xf2, 0x1e, 0xfc, 0xbd, 0xcc, 0x67, 0xcb, 0x3d,
  0x5d, 0x8c, 0xb5, 0xbd, 0x1c, 0x75, 0x0c, 0xbd, 0x9e, 0x10, 0x1d, 0x3e,
  0x26, 0xe0, 0xf0, 0x3d, 0xea, 0x58, 0xb2, 0x3d, 0x1e, 0x79, 0x7e, 0xbd,
  0x01, 0x01, 0x19, 0xbe, 0xa8, 0x69, 0x00, 0xbd, 0x1d, 0x8b, 0x0c, 0xbe,
  0xfc, 0x3b, 0xae, 0xbd, 0x98, 0x13, 0x96, 0xbd, 0x64, 0x47, 0x85, 0xbd,
  0x96, 0xcf, 0xfa, 0x3d, 0x52, 0xa4, 0x6e, 0x3d, 0x80, 0xe5, 0x43, 0x3e,
  0x04, 0xf1, 0x32, 0xbe, 0xfe, 0xc1, 0x00, 0x3e, 0x2e, 0x9f, 0x61, 0xbd,
  0x62, 0x0b, 0xbb, 0x3c, 0x09, 0xd1, 0x0c, 0x3d, 0xe3, 0x53, 0xb5, 0x3d,
  0x95, 0xe4, 0x9a, 0xbc, 0xcd, 0x88, 0x4c, 0x3d, 0x73, 0xa4, 0x24, 0xbd,
  0x73, 0xf2, 0x27, 0xbc, 0xf0, 0x68, 0x2a, 0xbe, 0x6a, 0x8b, 0xb4, 0x3d,
  0x63, 0xec, 0x44, 0x3e, 0x7e, 0xe9, 0x30, 0x3e, 0x29, 0xb8, 0x62, 0xbd,
  0x60, 0x0d, 0x42, 0xbe, 0xf3, 0xfb, 0x09, 0xbe, 0x7a, 0xd0, 0x49, 0x3e,
  0x7d, 0x77, 0xd6, 0x3d, 0xfa, 0xf7, 0x43, 0xbe, 0xdf, 0x7d, 0x3c, 0xbe,
  0x56, 0x17, 0x81, 0xbd, 0x1e, 0x01, 0xe5, 0xbd, 0x74, 0x02, 0x0b, 0x3e,
  0xb8, 0x7f, 0x03, 0x3e, 0x14, 0x86, 0xe5, 0xbd, 0x2f, 0x16, 0x4d, 0x3d,
  0xed, 0x84, 0xa4, 0x3d, 0x0e, 0x69, 0xf8, 0x3c, 0x43, 0x14, 0xd6, 0xbc,
  0x70, 0xa2, 0x48, 0x3e, 0xc8, 0x41, 0xae, 0x3b, 0xd5, 0x66, 0x1b, 0xbd,
  0xb5, 0x61, 0xf9, 0xbd, 0xd8, 0xd4, 0xd9, 0x3c, 0xbc, 0xb7, 0x7d, 0xbd,
  0x47, 0xff, 0x15, 0x3c, 0x85, 0x86, 0x57, 0x3c, 0x10, 0x91, 0x06, 0x3e,
  0x54, 0x48, 0x2d, 0x3e, 0x12, 0xa6, 0x5b, 0xbd, 0x18, 0xd5, 0x01, 0x3e,
  0x3b, 0xb5, 0x64, 0xbe, 0x0e, 0x05, 0x4e, 0xbe, 0x94, 0x52, 0x4a, 0xbe,
  0xa6, 0x0b, 0xb8, 0x3c, 0x36, 0x84, 0x5b, 0xbe, 0xff, 0xfd, 0x4a, 0xbd,
  0xc7, 0x47, 0x8a, 0xbd, 0x76, 0xbc, 0x1d, 0xbe, 0xb2, 0x33, 0x15, 0x3e,
  0x98, 0x83, 0x51, 0x3e, 0x33, 0x4a, 0x2c, 0xbe, 0xb1, 0x93, 0x0b, 0x3d,
  0x20, 0x9e, 0x33, 0xbe, 0x74, 0xfe, 0xa3, 0xbd, 0x59, 0x1b, 0x26, 0x3e,
  0x5c, 0x1a, 0xe7, 0xbb, 0xa1, 0xb8, 0x06, 0x3e, 0x8a, 0xa5, 0x28, 0xbe,
  0x30, 0xe7, 0xfc, 0x3c, 0xd0, 0x3e, 0x81, 0x3d, 0x2c, 0xcf, 0x23, 0x3e,
  0xbe, 0x71, 0xba, 0xbd, 0xaa, 0xd4, 0x30, 0x3c, 0xcb, 0xd9, 0x03, 0x3d,
  0x39, 0x25, 0x1a, 0xbe, 0x52, 0x43, 0x17, 0xbe, 0x6e, 0xa9, 0x00, 0xbd,
  0xa5, 0x2d, 0xda, 0xbc, 0x3f, 0x82, 0xd5, 0x3d, 0x96, 0x2f, 0x61, 0xbb,
  0xca, 0xa3, 0x94, 0xbd, 0xc9, 0x8f, 0x10, 0xbd, 0xfe, 0x0c, 0x26, 0xbe,
  0x71, 0x23, 0xf9, 0xbd, 0x5e, 0xcc, 0x10, 0x3e, 0x01, 0xce, 0xa3, 0x3d,
  0x10, 0x7a, 0x03, 0xbe, 0x78, 0x8d, 0x14, 0x3e, 0x00, 0xf0, 0x0a, 0xbe,
  0xd7, 0x02, 0x8a, 0xbb, 0xe2, 0xfa, 0xc9, 0x3d, 0x5c, 0xe7, 0x32, 0x3d,
  0x9b, 0xd3, 0xb8, 0x3d, 0xfe, 0x62, 0x15, 0xbe, 0x37, 0x62, 0xb3, 0x3d,
  0x9c, 0xc2, 0x3a, 0x3d, 0x4f, 0xdd, 0x40, 0x3e, 0x76, 0xf0, 0x11, 0x3e,
  0x4a, 0xd4, 0x63, 0xbb, 0x66, 0x9e, 0x1c, 0x3e, 0x5f, 0xd3, 0x1e, 0x3e,
  0x28, 0x77, 0x54, 0xbe, 0x7e, 0x24, 0x2f, 0x3e, 0x9e, 0x52, 0x3e, 0xbe,
  0x6b, 0x54, 0x19, 0x3e, 0x33, 0xf0, 0x2e, 0xbe, 0xce, 0x2f, 0xf4, 0xbc,
  0x0b, 0xa3, 0x3c, 0x3e, 0x92, 0x50, 0xfa, 0x3d, 0x92, 0x9b, 0xb4, 0x3d,
  0x8d, 0x8d, 0x08, 0xbe, 0xd2, 0x15, 0x4d, 0xbe, 0xbb, 0x8d, 0xa3, 0xbc,
  0x1f, 0x1c, 0x15, 0xbd, 0x0b, 0x38, 0x3f, 0xbe, 0xf8, 0x72, 0x8b, 0xbd,
  0x92, 0xac, 0x0c, 0x3e, 0x19, 0x9d, 0x9f, 0xbc, 0x69, 0xa1, 0xe2, 0xbd,
  0x6c, 0xb6, 0x46, 0xbe, 0x3b, 0x47, 0x94, 0xbc, 0xc1, 0xa6, 0x4c, 0xbe,
  0x6c, 0xb2, 0x04, 0xbd, 0xe0, 0x3b, 0x9a, 0xbd, 0x7a, 0x71, 0x26, 0xbe,
  0x42, 0xd9, 0x56, 0xbe, 0x1a, 0x1d, 0x98, 0x3b, 0xae, 0xb7, 0x73, 0x3d,
  0x36, 0xe2, 0xc7, 0xbc, 0xb1, 0xc5, 0x7a, 0x3c, 0x0b, 0x3e, 0x87, 0xbd,
  0x63, 0x48, 0x39, 0x3e, 0x4a, 0xcf, 0x73, 0x3c, 0xf2, 0x15, 0xf7, 0x3c,
  0x77, 0x24, 0x0b, 0xbe, 0xab, 0x9f, 0x46, 0x3e, 0x8a, 0x0b, 0xa4, 0x3d,
  0x50, 0x05, 0xd8, 0x3d, 0x14, 0xa4, 0x19, 0xbe, 0x48, 0xe7, 0x23, 0x3e,
  0x8c, 0x8a, 0x1f, 0x3e, 0x3e, 0xc2, 0x23, 0xbe, 0x0b, 0x77, 0x6c, 0xbe,
  0xe5, 0xde, 0x90, 0x3d, 0x74, 0xdf, 0x34, 0xbd, 0x01, 0x58, 0x3c, 0xbe,
  0xbb, 0xed, 0x53, 0x3d, 0xee, 0x28, 0xc8, 0x3d, 0xa4, 0xa1, 0x8d, 0xbd,
  0x34, 0xbb, 0x00, 0xbe, 0xef, 0xd9, 0xc9, 0xbd, 0x18, 0x9a, 0xd8, 0xbc,
  0xb8, 0x8b, 0x37, 0xbd, 0xc0, 0x01, 0xa5, 0xbb, 0x1d, 0x40, 0x23, 0xbe,
  0xc8, 0x36, 0x46, 0xbe, 0x43, 0x23, 0x21, 0x3e, 0x92, 0xfe, 0x70, 0x3d,
  0x2c, 0x52, 0x41, 0xbe, 0x5b, 0x1f, 0x9f, 0xbd, 0xbf, 0xa8, 0x46, 0xbe,
  0x54, 0x80, 0x50, 0x3e, 0x84, 0xa7, 0x41, 0x3d, 0xef, 0x34, 0x3e, 0xbe,
  0x75, 0x57, 0xb7, 0xbd, 0x99, 0x56, 0xe8, 0xbd, 0xf0, 0x07, 0x01, 0x3d,
  0xfa, 0xc2, 0x81, 0x3d, 0xac, 0x1a, 0xb5, 0xbd, 0x29, 0x80, 0x2d, 0x3d,
  0x52, 0x7b, 0x45, 0xbc, 0x41, 0x72, 0x0d, 0xbe, 0xb5, 0xcc, 0xfe, 0xbd,
  0x4b, 0x9c, 0x21, 0xbe, 0xf9, 0xdf, 0x2d, 0xbe, 0xa3, 0xcd, 0x13, 0xbe,
  0x44, 0xba, 0xec, 0xbd, 0xc0, 0x99, 0x52, 0x3c, 0x96, 0x4e, 0x2c, 0xbe,
  0x64, 0x72, 0x0f, 0xbe, 0xf2, 0x0e, 0x15, 0x3e, 0xc7, 0xd8, 0x57, 0x3e,
  0x0a, 0x02, 0x98, 0xbd, 0x4f, 0xd1, 0xcb, 0xbd, 0xa7, 0xda, 0x5b, 0xbe,
  0xac, 0x7b, 0x1f, 0x3d, 0xab, 0x55, 0x47, 0xbe, 0xae, 0x38, 0xf3, 0xbd,
  0x7a, 0xfc, 0x36, 0x3e, 0xb4, 0x1d, 0x0a, 0xbe, 0xa4, 0xc7, 0x37, 0xbd,
  0xf6, 0x50, 0x1f, 0x3e, 0x62, 0xfd, 0xae, 0x3d, 0xd3, 0x08, 0x14, 0xbe,
  0x23, 0xa0, 0x52, 0x3e, 0x10, 0xf0, 0x93, 0x3c, 0x9a, 0x25, 0xff, 0x3d,
  0x83, 0x0b, 0x61, 0xbd, 0xca, 0x56, 0x9c, 0x3d, 0x7c, 0x66, 0xf8, 0xbd,
  0xfe, 0xc7, 0xc8, 0x3d, 0x1f, 0xc2, 0x02, 0x3e, 0x2b, 0x7a, 0x4e, 0x3e,
  0x32, 0x38, 0xae, 0x3d, 0x79, 0x80, 0x2e, 0xbe, 0x0e, 0xc6, 0x10, 0xbe,
  0x6a, 0xd7, 0x21, 0xbe, 0x82, 0xd0, 0x29, 0xbe, 0x5c, 0x6c, 0xee, 0xbd,
  0xda, 0xb7, 0xbe, 0x3e, 0x60, 0x75, 0x48, 0x3e, 0xb4, 0x96, 0xb3, 0x3d,
  0x81, 0xb5, 0x3e, 0x3d, 0x4d, 0x82, 0x00, 0xbd, 0xb6, 0xe7, 0xba, 0x3d,
  0x6a, 0xdc, 0xb6, 0x3d, 0x5d, 0x99, 0xa5, 0x3e, 0x8d, 0xb7, 0xd1, 0x3e,
  0x77, 0x52, 0xbd, 0x3d, 0xec, 0x59, 0xfa, 0x3d, 0x7e, 0x5c, 0x78, 0x3e,
  0x12, 0x17, 0x34, 0x3e, 0x4e, 0x20, 0xe2, 0x3c, 0x2e, 0x54, 0x0a, 0x3e,
  0x03, 0x14, 0xa0, 0x3d, 0x86, 0x82, 0xd3, 0x3e, 0x5f, 0xf4, 0xd0, 0x3e,
  0xae, 0x34, 0x85, 0x3e, 0x50, 0xf1, 0x48, 0x3e, 0x45, 0xfa, 0xa3, 0x3d,
  0x3e, 0xd7, 0x2a, 0x3d, 0x97, 0xc1, 0x57, 0xbd, 0xb7, 0x9e, 0x84, 0x3e,
  0xa8, 0xb9, 0x84, 0x3c, 0x7f, 0x32, 0x95, 0x3e, 0x86, 0x88, 0xeb, 0xba,
  0x4f, 0x4d, 0x9c, 0x3e, 0x54, 0xe4, 0x5a, 0x3e, 0xbe, 0x6e, 0xa3, 0x3e,
  0xfd, 0xb1, 0xdf, 0x3e, 0x91, 0x94, 0x8c, 0x3c, 0xfc, 0x14, 0xec, 0x3e,
  0xaa, 0x82, 0x8c, 0x3e, 0xc2, 0xa8, 0x13, 0x3e, 0x36, 0xb6, 0x9e, 0x3d,
  0x5e, 0x57, 0x1d, 0x3d, 0xcc, 0x32, 0x37, 0x3e, 0x10, 0x73, 0xa6, 0x3e,
  0x88, 0x80, 0xcc, 0x3e, 0xf2, 0xc6, 0x08, 0x3e, 0x20, 0x51, 0x15, 0x3d,
  0x3a, 0x86, 0x0a, 0x3e, 0x17, 0x8e, 0xbc, 0x3d, 0x24, 0x34, 0x56, 0x3e,
  0x9a, 0x89, 0x97, 0x3e, 0x92, 0x1e, 0x8b, 0x3e, 0x0d, 0xac, 0xc6, 0x3e,
  0xf1, 0xbd, 0x79, 0x3d, 0xb9, 0x3b, 0x4c, 0x3e, 0x79, 0xca, 0xdb, 0x3e,
  0x46, 0x5c, 0x64, 0x3d, 0x4e, 0xcb, 0x84, 0x3e, 0x5d, 0x98, 0x9e, 0x3e,
  0x23, 0x26, 0xd6, 0x3e, 0x8c, 0x70, 0x9c, 0x3e, 0x53, 0x2a, 0x2b, 0x3d,
  0x07, 0x91, 0xfd, 0xbc, 0x21, 0xb0, 0xfd, 0x3d, 0x20, 0x71, 0x75, 0x3e,
  0x71, 0x67, 0x7a, 0x3b, 0xe9, 0x32, 0x1f, 0x3d, 0x51, 0x4c, 0x1d, 0x3c,
  0x91, 0xdf, 0x84, 0x3e, 0x3a, 0x5e, 0x23, 0x3c, 0x24, 0xff, 0xa3, 0x3d,
  0xbe, 0x74, 0xd1, 0x3e, 0x70, 0xc3, 0x08, 0x3e, 0x62, 0xe2, 0xfa, 0x3d,
  0xc6, 0x26, 0x24, 0x3e, 0x08, 0x2e, 0xbe, 0x3e, 0x35, 0x50, 0x9a, 0xbd,
  0x62, 0x89, 0x9b, 0x3e, 0xde, 0xab, 0xb4, 0x3e, 0xbf, 0x7c, 0xab, 0xba,
  0x6e, 0x61, 0xb7, 0x3e, 0xb4, 0x88, 0x12, 0x3e, 0xe5, 0xcc, 0xdd, 0x3d,
  0x5f, 0x04, 0x83, 0x3d, 0x70, 0xe4, 0x0a, 0x3e, 0x77, 0xe0, 0x14, 0x3e,
  0x3a, 0xeb, 0x56, 0x3d, 0xe0, 0x8d, 0x78, 0x3e, 0x64, 0xa0, 0x9b, 0x3e,
  0x06, 0xa8, 0x3d, 0x3e, 0xfc, 0x5f, 0xbe, 0x3e, 0x15, 0xa8, 0x50, 0x3d,
  0x50, 0x71, 0x87, 0x3d, 0xf9, 0x91, 0xbe, 0x3c, 0x58, 0xa8, 0xab, 0x3e,
  0x03, 0x68, 0x3c, 0x3e, 0x38, 0x75, 0x97, 0x3d, 0x32, 0x6f, 0xfa, 0x3d,
  0x5d, 0xcc, 0xa3, 0x3c, 0x38, 0x3b, 0xa6, 0x3e, 0x4d, 0xc9, 0xc4, 0x3e,
  0xff, 0x70, 0x1b, 0x3e, 0x79, 0xd0, 0xb1, 0x3e, 0x34, 0x7f, 0x87, 0x3e,
  0xb8, 0x3d, 0x34, 0x3d, 0xc0, 0x96, 0x9a, 0x3e, 0xe5, 0xa4, 0xcd, 0x3e,
  0xf8, 0x25, 0x5c, 0x3e, 0xe2, 0x96, 0xba, 0x3e, 0x4a, 0x70, 0x36, 0x3e,
  0x6d, 0xed, 0x11, 0x3d, 0x5b, 0xd9, 0x0e, 0x3e, 0x71, 0x0e, 0x24, 0x3e,
  0x26, 0xa9, 0x0b, 0x3e, 0xfe, 0x19, 0x97, 0x3d, 0x80, 0x4f, 0xc8, 0x3e,
  0x03, 0x57, 0x8a, 0x3e, 0x79, 0x48, 0x91, 0x3e, 0x04, 0xea, 0x3c, 0x3e,
  0x2f, 0x12, 0x9b, 0x3e, 0x88, 0x5e, 0x5a, 0x3e, 0x9c, 0x4e, 0x8c, 0x3e,
  0x72, 0xe1, 0xaa, 0x3e, 0x72, 0x6f, 0x84, 0x3d, 0x86, 0x34, 0xbf, 0x3d,
  0x7c, 0x6f, 0xc4, 0x3d, 0xfc, 0x5a, 0x6e, 0x3e, 0x1a, 0x2a, 0xa8, 0x3e,
  0xa2, 0x27, 0xcf, 0x3e, 0xe1, 0x2c, 0x66, 0x3e, 0x32, 0x55, 0xf5, 0x3d,
  0xbc, 0xf8, 0xa1, 0x3e, 0x48, 0xa7, 0xb5, 0x3d, 0x1d, 0x05, 0xab, 0x3e,
  0x2b, 0x96, 0xbd, 0x3e, 0x63, 0xec, 0xf4, 0x3b, 0x70, 0x65, 0x79, 0x3e,
  0xfd, 0xb8, 0xba, 0x3e, 0xf5, 0x24, 0x67, 0x3e, 0xb8, 0x3e, 0x9e, 0x3e,
  0xe6, 0x53, 0x8d, 0x3e, 0x57, 0x95, 0xf8, 0x3e, 0xfc, 0x92, 0xb1, 0x3e,
  0xe8, 0x78, 0xac, 0x3e, 0x31, 0x33, 0xc8, 0x3e, 0x44, 0x53, 0xc3, 0x3e,
  0x97, 0xdc, 0x75, 0x3e, 0xf7, 0x16, 0x36, 0x3e, 0xbc, 0xc0, 0xb9, 0xbd,
  0x53, 0xaf, 0x09, 0x3e, 0x8e, 0x22, 0x32, 0x3e, 0x59, 0x5d, 0x33, 0x3e,
  0x87, 0x08, 0x80, 0x3e, 0x41, 0x31, 0xe5, 0x3d, 0xab, 0x20, 0xdf, 0x3c,
  0x13, 0xff, 0xa4, 0x3e, 0x68, 0x1a, 0x61, 0x3e, 0x08, 0x8b, 0x10, 0x3e,
  0x0b, 0x09, 0x9a, 0x3e, 0xe0, 0x75, 0x59, 0x3e, 0xff, 0xc7, 0x8e, 0x3d,
  0x78, 0x54, 0x82, 0x3e, 0x70, 0xd7, 0xba, 0x3e, 0xf5, 0xf1, 0x9c, 0x3e,
  0xaa, 0xfc, 0xa5, 0x3e, 0x81, 0xaf, 0x7f, 0x3e, 0x07, 0x2f, 0x09, 0x3e,
  0x87, 0x05, 0xf6, 0x3e, 0x91, 0x54, 0xc7, 0x3e, 0x4a, 0x36, 0xcd, 0x3e,
  0x1d, 0xf9, 0x58, 0x3c, 0x96, 0x73, 0x89, 0x3e, 0x37, 0x8a, 0xbb, 0x3d,
  0x10, 0xb3, 0xaa, 0x3e, 0xcc, 0x49, 0x9a, 0x3d, 0x7e, 0xbb, 0xc1, 0x3e,
  0x8f, 0x0f, 0xe0, 0x3d, 0x56, 0x05, 0x7c, 0x3e, 0xd0, 0x7c, 0xc8, 0x3e,
  0x4f, 0x6a, 0xdf, 0x3d, 0x77, 0x92, 0xf5, 0x3d, 0x61, 0x1f, 0x4e, 0x3d,
  0x31, 0x14, 0xaa, 0x3e, 0xdf, 0xea, 0x8d, 0x3e, 0x05, 0xa6, 0x89, 0x3e,
  0x36, 0xaf, 0xdf, 0x3e, 0x17, 0xc4, 0x8b, 0x3e, 0x50, 0x90, 0x33, 0x3c,
  0x03, 0xcf, 0xb8, 0x3e, 0x3d, 0x08, 0x70, 0x3e, 0xa8, 0x8a, 0x11, 0x3d,
  0x09, 0x72, 0xbd, 0x3e, 0x5d, 0x5e, 0x91, 0x3e, 0x63, 0xf4, 0x13, 0x3e,
  0x04, 0x6d, 0x1b, 0x3c, 0xf7, 0x82, 0x97, 0xbc, 0x4d, 0x29, 0xd1, 0x3c,
  0xaf, 0xee, 0x76, 0x3e, 0x22, 0xf9, 0xc2, 0x3e, 0xe0, 0x9b, 0x4e, 0x3e,
  0xdf, 0xd0, 0x0f, 0x3e, 0x98, 0x81, 0xe5, 0x3d, 0x28, 0x2b, 0x21, 0x3e,
  0x9d, 0x56, 0x7d, 0x3e, 0xb0, 0x5a, 0x62, 0x3e, 0xc7, 0x6d, 0xe9, 0x3e,
  0x4d, 0xac, 0xb7, 0x3e, 0xf0, 0x89, 0xb6, 0x3d, 0xa6, 0xe5, 0x9e, 0x3d,
  0xd0, 0xa3, 0xdd, 0x3e, 0xf0, 0xaa, 0x76, 0x3c, 0x6c, 0x3d, 0xff, 0x3c,
  0xc2, 0xfb, 0xe3, 0xbd, 0x77, 0x61, 0xa2, 0x3e, 0x87, 0xc4, 0xb8, 0x3e,
  0x57, 0x7b, 0x9f, 0x3e, 0x55, 0xff, 0x70, 0x3e, 0xbb, 0x22, 0x25, 0x3e,
  0x8a, 0xd2, 0x0d, 0x3d, 0x5f, 0x6f, 0x3a, 0x3e, 0xf0, 0x0f, 0xbb, 0x3e,
  0x35, 0xbd, 0x65, 0x3e, 0x0d, 0x4f, 0xeb, 0x3c, 0x32, 0x90, 0xb9, 0x3e,
  0xee, 0x80, 0x13, 0x3e, 0xa4, 0xb9, 0x0e, 0xbe, 0x60, 0xcf, 0x23, 0x3e,
  0x35, 0x15, 0x05, 0x3e, 0xc6, 0x6f, 0xae, 0x3e, 0xb5, 0xdf, 0x39, 0x3e,
  0xc5, 0x28, 0xeb, 0x3e, 0x3c, 0xaa, 0xab, 0x3e, 0xac, 0x72, 0x15, 0x3e,
  0x7f, 0x33, 0xc6, 0x3e, 0x8d, 0x89, 0x17, 0x3e, 0xc9, 0xba, 0xe3, 0x3e,
  0x4e, 0x82, 0x99, 0x3e, 0x4d, 0x2f, 0x99, 0x3e, 0x44, 0x65, 0x2a, 0xbd,
  0x5f, 0x7b, 0xc0, 0x3e, 0xfc, 0x37, 0xa9, 0x3e, 0x0b, 0xf0, 0x6b, 0x3e,
  0xa4, 0x27, 0xba, 0x3e, 0xc1, 0x75, 0x8f, 0x3e, 0xde, 0x16, 0xa4, 0x3e,
  0xda, 0xa1, 0x68, 0x3e, 0xbe, 0xd5, 0x87, 0x3e, 0x07, 0x96, 0x5c, 0x3e,
  0xeb, 0x7f, 0x6d, 0x3e, 0xb8, 0xb1, 0xe3, 0x3e, 0x46, 0xa1, 0x98, 0x3d,
  0xab, 0x58, 0x83, 0x3e, 0x67, 0x73, 0xeb, 0x3d, 0xc0, 0xe9, 0x37, 0x3d,
  0x7f, 0xbf, 0x14, 0x3e, 0x7e, 0x7a, 0xa7, 0x3d, 0xa3, 0x86, 0xfe, 0x3d,
  0xdb, 0x91, 0xc6, 0x3e, 0x0c, 0xa9, 0xa5, 0x3d, 0x2e, 0x1b, 0x3d, 0x3c,
  0xcc, 0x1f, 0x21, 0x3e, 0x07, 0xba, 0x3f, 0xbe, 0x62, 0x99, 0x12, 0x3d,
  0xd0, 0x1d, 0xf2, 0x3d, 0xab, 0x77, 0x8a, 0x3d, 0x22, 0x22, 0x42, 0xbc,
  0xf5, 0x34, 0x10, 0xbe, 0x10, 0xa6, 0xc2, 0x3d, 0x89, 0x56, 0x21, 0xbc,
  0x92, 0x32, 0x9e, 0x3d, 0xc4, 0x5c, 0x91, 0xbd, 0x7a, 0x66, 0x9a, 0xbd,
  0xb7, 0xe6, 0xc2, 0x3c, 0x34, 0xd8, 0x17, 0x3e, 0x99, 0x43, 0x40, 0xbd,
  0x20, 0x9e, 0xae, 0x3d, 0xef, 0x5b, 0x29, 0x3e, 0x19, 0xd9, 0x08, 0x3c,
  0xf5, 0x95, 0x5e, 0xbe, 0xcc, 0xf8, 0xb9, 0x3d, 0xeb, 0xd3, 0x06, 0xbd,
  0xae, 0xa4, 0xf4, 0xbd, 0xde, 0xa9, 0x21, 0xbe, 0xb5, 0x1d, 0xd2, 0x3d,
  0x2d, 0x04, 0xee, 0x3c, 0x69, 0xf2, 0xd4, 0xbd, 0xc6, 0x59, 0x5f, 0xbe,
  0xcc, 0xb3, 0x66, 0x3b, 0x53, 0x50, 0xf6, 0xbb, 0x12, 0x81, 0x9e, 0xbd,
  0x5e, 0xcf, 0x42, 0x3e, 0xeb, 0x7c, 0x4b, 0xbe, 0x41, 0xc4, 0xca, 0x3d,
  0xe4, 0xd3, 0x50, 0xbe, 0x8c, 0xeb, 0xaf, 0x3d, 0x0c, 0xa8, 0xca, 0xbd,
  0x81, 0x3b, 0x96, 0x3d, 0x3a, 0xaf, 0x4d, 0x3d, 0xd0, 0x14, 0xf3, 0xbc,
  0x9b, 0x7b, 0x62, 0xbe, 0xe3, 0x85, 0x70, 0xbe, 0xbe, 0xfb, 0xa5, 0x3d,
  0x51, 0x7e, 0xb9, 0xbd, 0x2e, 0x82, 0x1c, 0x3e, 0x59, 0x66, 0x05, 0x3d,
  0x58, 0xd7, 0xe9, 0x3c, 0xb3, 0xca, 0x22, 0xbe, 0x51, 0x49, 0xfd, 0x3d,
  0x8d, 0x37, 0x54, 0xbe, 0x22, 0x3d, 0xc2, 0x3d, 0x04, 0x55, 0x15, 0x3d,
  0xd0, 0x38, 0xb4, 0x3d, 0x11, 0x84, 0x9c, 0xbc, 0x9a, 0xb8, 0xf4, 0x3d,
  0x50, 0xf1, 0x73, 0x3d, 0xff, 0x8e, 0x2e, 0x3e, 0x48, 0x5c, 0x00, 0xbe,
  0x91, 0x44, 0x27, 0xbe, 0xb9, 0x36, 0x94, 0xbd, 0x3e, 0xfa, 0xd9, 0x3d,
  0xa7, 0xdd, 0x2a, 0x3e, 0xd9, 0xa0, 0x56, 0xbe, 0x49, 0x95, 0x24, 0x3d,
  0x62, 0x69, 0x5a, 0xbe, 0x21, 0xdc, 0x2a, 0x3d, 0x84, 0x31, 0x9e, 0x3e,
  0x59, 0x29, 0x03, 0x3d, 0xc5, 0x93, 0xc4, 0x3e, 0x24, 0xd5, 0xca, 0x3d,
  0x2a, 0x24, 0x73, 0x3e, 0xa6, 0x5f, 0xcd, 0x3e, 0x68, 0x1a, 0xcf, 0x3e,
  0x86, 0xa8, 0x31, 0x3e, 0xa0, 0x73, 0x9e, 0x3e, 0xfc, 0x72, 0x2e, 0x3e,
  0xa4, 0x03, 0xa2, 0x3e, 0xb5, 0x2a, 0x12, 0x3e, 0x23, 0x50, 0xb8, 0x3e,
  0x14, 0xcc, 0x03, 0x3e, 0x35, 0x8a, 0xbe, 0x3e, 0x75, 0xc2, 0x33, 0x3e,
  0x71, 0x44, 0xe4, 0x3e, 0x06, 0x67, 0xf4, 0x3d, 0x7a, 0x21, 0x63, 0x3e,
  0x71, 0xa8, 0xd4, 0x3d, 0x43, 0xd8, 0x1f, 0x3d, 0xab, 0x9d, 0x33, 0xbd,
  0xb6, 0x21, 0xd8, 0x3d, 0x90, 0xc1, 0xc6, 0x3d, 0xb4, 0xc9, 0x69, 0x3e,
  0xba, 0x3f, 0x2f, 0x3d, 0xf6, 0x90, 0xdf, 0xbc, 0x2c, 0x6c, 0xba, 0x3c,
  0x5a, 0x1b, 0xac, 0xbd, 0x90, 0x42, 0x2f, 0x3e, 0xcc, 0x2c, 0x80, 0x3e,
  0x70, 0x85, 0xa3, 0x3d, 0x6c, 0xb8, 0x87, 0x3e, 0xb8, 0xcf, 0xda, 0x3e,
  0x7b, 0x15, 0xbc, 0x3d, 0xcb, 0xb6, 0x85, 0x3e, 0xbf, 0xe0, 0x90, 0x3d,
  0x50, 0x6f, 0x99, 0x3e, 0x39, 0x27, 0xad, 0x3e, 0xb5, 0x89, 0xe0, 0x3e,
  0x4b, 0xb8, 0x50, 0x3d, 0x40, 0xe4, 0x04, 0x3d, 0x81, 0x4f, 0xc5, 0x3e,
  0xc4, 0x46, 0xe3, 0x3c, 0x43, 0xe8, 0x31, 0x3e, 0x75, 0xa2, 0x63, 0x3e,
  0x35, 0x1c, 0xd8, 0x3e, 0xd5, 0xa9, 0xda, 0x3e, 0xdc, 0x67, 0x8d, 0x3e,
  0x10, 0x3d, 0xeb, 0x3d, 0x9d, 0xb9, 0x91, 0x3e, 0x36, 0x15, 0xce, 0x3d,
  0xac, 0xd4, 0x6d, 0x3e, 0x40, 0x51, 0x0d, 0x3e, 0xcf, 0xc5, 0xc8, 0x3e,
  0x8e, 0x77, 0x15, 0x3e, 0x33, 0x89, 0xab, 0x3e, 0x0a, 0x33, 0x81, 0x3d,
  0xd8, 0x5f, 0xab, 0x3d, 0x84, 0x59, 0xbe, 0x3d, 0xec, 0x8c, 0xf8, 0x3d,
  0x9e, 0xff, 0x79, 0x3e, 0x20, 0x0c, 0xcd, 0x3e, 0x56, 0x1b, 0x5c, 0x3e,
  0xc9, 0x1e, 0x30, 0xbe, 0x9d, 0x37, 0xa2, 0xbd, 0xb1, 0x68, 0x88, 0xbd,
  0x88, 0x5f, 0xeb, 0x39, 0xff, 0x80, 0x27, 0xbe, 0x15, 0x83, 0x00, 0x3e,
  0x5e, 0x65, 0x63, 0xbd, 0x1a, 0xf2, 0x59, 0xbe, 0x9f, 0x95, 0x1f, 0xbc,
  0x70, 0x17, 0x41, 0x3e, 0x55, 0xbb, 0x1b, 0xbe, 0x32, 0x1d, 0x00, 0xbe,
  0xd7, 0x93, 0xd8, 0x3d, 0x74, 0x54, 0x31, 0xbd, 0x7b, 0xc1, 0x25, 0xbd,
  0xb6, 0x00, 0x6a, 0xbb, 0xf3, 0x09, 0x0b, 0xbe, 0x2e, 0x36, 0xc2, 0x3d,
  0x08, 0x50, 0x45, 0x3e, 0x89, 0x4b, 0x3b, 0x3e, 0xa6, 0x98, 0x49, 0xbc,
  0x83, 0x86, 0x44, 0xbc, 0xc7, 0x46, 0xcc, 0x3d, 0x78, 0x81, 0x2d, 0x3d,
  0x54, 0x27, 0x47, 0x3e, 0xf9, 0x98, 0x2f, 0xbe, 0x32, 0x6e, 0x49, 0x3d,
  0xd2, 0xb8, 0xc1, 0x3d, 0x78, 0x60, 0x02, 0x3e, 0xf2, 0xed, 0x2b, 0x3e,
  0x21, 0xa2, 0x41, 0xbd, 0x0c, 0xd4, 0xea, 0x3d, 0xe8, 0xdf, 0x0f, 0xbe,
  0xc3, 0xa4, 0xd4, 0x3d, 0xd2, 0x17, 0xf4, 0xb9, 0xf9, 0x0d, 0xcb, 0x3d,
  0x92, 0xc5, 0xcd, 0xbd, 0x2d, 0x5b, 0x92, 0xbd, 0x93, 0x7b, 0x57, 0x3c,
  0xd0, 0x8c, 0x5d, 0x3d, 0x8d, 0xf9, 0xe6, 0xbd, 0x19, 0x05, 0x00, 0x3d,
  0x87, 0xb4, 0x79, 0x3b, 0x37, 0xc5, 0x11, 0x3e, 0x5b, 0x1e, 0x1b, 0xbc,
  0x50, 0xc6, 0x86, 0xbc, 0xfb, 0x99, 0x5c, 0xbe, 0x98, 0x98, 0x61, 0xbe,
  0x28, 0xc7, 0x22, 0x3e, 0xd3, 0xb2, 0x0f, 0xbe, 0xc4, 0x47, 0x27, 0xbd,
  0x7d, 0x5c, 0xb8, 0xbd, 0x15, 0x0e, 0x06, 0xbe, 0x8d, 0x1d, 0x04, 0xbb,
  0x84, 0x85, 0x41, 0xbe, 0x0d, 0x94, 0xd0, 0x3d, 0x76, 0x6a, 0x5e, 0x3d,
  0x3a, 0xf3, 0x85, 0xbd, 0x3d, 0xcd, 0x43, 0x3e, 0xa5, 0x4f, 0x08, 0x3d,
  0x28, 0x43, 0x25, 0xbe, 0x96, 0x89, 0x18, 0xbe, 0x2f, 0xfa, 0x1a, 0xbd,
  0xce, 0x23, 0xdf, 0x3d, 0xdc, 0x28, 0x91, 0x3e, 0x13, 0x6d, 0x82, 0x3e,
  0x35, 0x93, 0x8f, 0x3e, 0x03, 0x7d, 0x71, 0x3e, 0x00, 0xdb, 0x6f, 0x3e,
  0x48, 0xaa, 0x5f, 0x3e, 0x15, 0x8d, 0x2a, 0x3e, 0xce, 0xe8, 0x49, 0x3e,
  0x92, 0x0d, 0xef, 0x3d, 0xd6, 0x8e, 0xad, 0x3e, 0xb0, 0x0f, 0xb9, 0x3e,
  0xc9, 0x77, 0x85, 0x3e, 0x1d, 0xa1, 0xcb, 0x3e, 0xba, 0xe9, 0xa8, 0x3c,
  0x15, 0x4e, 0xdd, 0x3e, 0xb8, 0x7c, 0x07, 0xbe, 0x90, 0xe7, 0x0c, 0x3e,
  0x57, 0x34, 0x81, 0x3e, 0xc4, 0x0d, 0x8d, 0x3d, 0xc9, 0x82, 0x1f, 0x3e,
  0xff, 0x7e, 0x72, 0x3e, 0x79, 0x52, 0x0b, 0x3c, 0x24, 0x39, 0x02, 0xbb,
  0x90, 0x2c, 0xb0, 0x3e, 0x1f, 0x8c, 0x18, 0x3e, 0xe4, 0xea, 0x3d, 0xbb,
  0xdd, 0xe7, 0xb0, 0x3d, 0x78, 0x87, 0xff, 0x3d, 0xd9, 0xff, 0x52, 0x3e,
  0x72, 0xd5, 0xc9, 0x3e, 0x0a, 0xc9, 0xb3, 0x3d, 0x1e, 0xe2, 0xa3, 0x3d,
  0x8e, 0xd6, 0x03, 0x3e, 0x28, 0x24, 0xed, 0x3e, 0x56, 0x6b, 0xb0, 0x3e,
  0x2c, 0xe3, 0xc3, 0x3e, 0xa8, 0xce, 0x3b, 0x3e, 0x28, 0x92, 0xd9, 0x3e,
  0xa0, 0xe7, 0xb4, 0x3d, 0xe6, 0x67, 0x90, 0x3e, 0x66, 0x60, 0xa9, 0x3d,
  0x7e, 0x91, 0xa6, 0x3e, 0x1d, 0xf5, 0xf8, 0x3d, 0xc4, 0x3d, 0x8c, 0x3e,
  0x0f, 0x85, 0x77, 0x3e, 0x29, 0xf6, 0x0a, 0x3e, 0x27, 0x49, 0x0b, 0x3e,
  0xb7, 0x9b, 0x3c, 0x3e, 0x56, 0xe8, 0x76, 0x3e, 0x52, 0x31, 0xc1, 0x3c,
  0x40, 0x60, 0x5c, 0x3e, 0x62, 0xb4, 0xe5, 0x3d, 0x06, 0x43, 0xa5, 0x3e,
  0xb2, 0x8f, 0xa3, 0xbc, 0xd3, 0xcb, 0x32, 0x3e, 0xc5, 0xdf, 0xd0, 0x3e,
  0x69, 0xbf, 0x77, 0x3e, 0x78, 0xe9, 0x43, 0x3e, 0x94, 0x05, 0xd9, 0x3d,
  0xbe, 0x6d, 0x4e, 0x3e, 0xe6, 0x40, 0xe1, 0x3d, 0x48, 0xe0, 0xa6, 0x3e,
  0x84, 0xbf, 0x9d, 0x3c, 0xaa, 0x42, 0x4c, 0x3e, 0x49, 0x2d, 0xe9, 0xbd,
  0x0e, 0xfa, 0x30, 0x3e, 0xac, 0xc7, 0x37, 0x3e, 0xd2, 0x20, 0x58, 0xbe,
  0xe7, 0xae, 0x2e, 0xbd, 0xc6, 0xdf, 0x3c, 0x3c, 0xa0, 0xed, 0xdd, 0xbd,
  0x3b, 0xca, 0x80, 0xbd, 0xea, 0x10, 0x95, 0xbd, 0x28, 0x9e, 0x56, 0xbe,
  0x21, 0x5d, 0x31, 0xbe, 0x19, 0x5a, 0x10, 0x3e, 0x06, 0x87, 0xa8, 0x3c,
  0x4d, 0x58, 0xad, 0x3c, 0x5f, 0xe0, 0x92, 0xbc, 0x26, 0xad, 0x9a, 0x3d,
  0x62, 0x56, 0x52, 0xbe, 0x2d, 0x4b, 0x2f, 0xbe, 0xc2, 0xcf, 0x24, 0x3d,
  0x49, 0x82, 0x41, 0xbe, 0xab, 0x36, 0x11, 0xbd, 0x83, 0x97, 0x2c, 0x3d,
  0x80, 0x71, 0x3b, 0xbe, 0xfb, 0x2c, 0x2c, 0xbe, 0xb5, 0xab, 0x5b, 0xbd,
  0x58, 0xd7, 0x4a, 0xbe, 0x47, 0x2b, 0xdd, 0xbd, 0xe5, 0xc8, 0x1d, 0xbe,
  0xf1, 0x1f, 0x2f, 0x3d, 0xbb, 0x69, 0x90, 0xbc, 0xc6, 0x7b, 0xb5, 0xbd,
  0xc8, 0x5c, 0x17, 0x3e, 0x0e, 0x47, 0xa8, 0xbc, 0xf9, 0xfd, 0x3c, 0xbd,
  0x8f, 0xf1, 0x21, 0x3e, 0x3c, 0x78, 0x23, 0xbe, 0xdf, 0x96, 0x32, 0x3e,
  0x35, 0xf0, 0x82, 0xbc, 0x30, 0x04, 0x23, 0x3e, 0x44, 0x38, 0x51, 0x3e,
  0x00, 0x9d, 0xcc, 0x3d, 0xa6, 0x15, 0xe7, 0x3d, 0x79, 0x54, 0x7f, 0x3d,
  0x4a, 0xf6, 0x10, 0x3e, 0x7c, 0x12, 0x31, 0x3d, 0x11, 0x97, 0xc9, 0x3d,
  0xef, 0xb1, 0x0e, 0x3c, 0x99, 0x7f, 0xcf, 0xbd, 0xd7, 0x70, 0xb4, 0x3d,
  0x8c, 0x1b, 0x03, 0x3e, 0x19, 0xf8, 0x86, 0xbb, 0xc6, 0x33, 0x58, 0x3d,
  0x54, 0xd1, 0xef, 0xbd, 0xd3, 0x17, 0x57, 0xbe, 0x02, 0x41, 0x99, 0x3c,
  0x80, 0x3c, 0x13, 0x3e, 0xe7, 0x08, 0x5f, 0xbd, 0x7c, 0x09, 0x65, 0xbd,
  0x9a, 0x24, 0xc5, 0xbd, 0x21, 0xe8, 0x0e, 0x3e, 0xd7, 0x6e, 0xad, 0x3d,
  0x19, 0xc3, 0x07, 0x3e, 0x7a, 0xc5, 0x49, 0xbe, 0xdc, 0xa2, 0xba, 0x3b,
  0x21, 0xa7, 0x6b, 0x3d, 0x6c, 0xb9, 0xae, 0x3e, 0xa3, 0xba, 0xcc, 0x3d,
  0xe3, 0x87, 0x85, 0x3e, 0xfc, 0x95, 0xbb, 0x3d, 0x80, 0x9f, 0x85, 0x3d,
  0x86, 0x70, 0x83, 0xbb, 0x06, 0x1c, 0xae, 0x3d, 0x15, 0x19, 0x91, 0x3e,
  0xe2, 0x38, 0xea, 0x3d, 0x1e, 0xe8, 0xa6, 0x3e, 0x4c, 0x47, 0x00, 0x3d,
  0xbc, 0x7a, 0xb2, 0x3d, 0x33, 0x4a, 0xf9, 0x3d, 0x78, 0x57, 0x4b, 0x3d,
  0xc9, 0x85, 0x13, 0xbe, 0x5c, 0x21, 0x91, 0x3e, 0x1d, 0x0b, 0x98, 0x3e,
  0x91, 0x11, 0x0d, 0x3e, 0xcf, 0x6b, 0x99, 0x3e, 0x83, 0x15, 0x43, 0x3e,
  0x65, 0xfe, 0x03, 0x3c, 0x68, 0xa5, 0x74, 0x3e, 0xa7, 0x9c, 0x6c, 0x3d,
  0xb3, 0x35, 0x54, 0x3e, 0x28, 0x41, 0xce, 0x3e, 0x69, 0xc6, 0x18, 0x3e,
  0xe8, 0x8d, 0x43, 0x3e, 0xde, 0x58, 0xe8, 0x3d, 0xd5, 0x39, 0xb3, 0x3e,
  0x08, 0xd9, 0xc8, 0x3e, 0x55, 0x88, 0xd1, 0x3e, 0x9f, 0xea, 0x6a, 0x3e,
  0x97, 0xc3, 0xb2, 0x3e, 0xc3, 0xc3, 0xaa, 0x3e, 0x1a, 0x7e, 0xc6, 0x3d,
  0x1f, 0xd6, 0x31, 0x3e, 0x4d, 0x25, 0xc8, 0x3e, 0x40, 0xcd, 0xb0, 0x3e,
  0xce, 0x4b, 0x56, 0x3e, 0x5e, 0x74, 0x52, 0x3e, 0x64, 0x58, 0x6d, 0x3e,
  0x04, 0x96, 0x6c, 0x3b, 0x3a, 0x7e, 0x95, 0x3e, 0x26, 0x4e, 0x91, 0x3d,
  0xe9, 0xdf, 0xbd, 0x3e, 0xc7, 0xc5, 0x36, 0x3e, 0x87, 0x19, 0xd0, 0x3d,
  0x7e, 0x1e, 0x87, 0x3e, 0xcd, 0x35, 0xac, 0x3e, 0xae, 0x7b, 0xe5, 0x3d,
  0xa1, 0xc7, 0x06, 0x3e, 0x79, 0x06, 0xb8, 0x3e, 0xd0, 0x97, 0xa8, 0x3d,
  0x7f, 0xa1, 0xa5, 0x3e, 0xac, 0xfd, 0x8e, 0x3d, 0x38, 0xf3, 0x80, 0x3e,
  0x76, 0x8a, 0x61, 0x3e, 0x10, 0x92, 0x9a, 0x3e, 0x68, 0x5a, 0xd8, 0x3d,
  0x21, 0xa4, 0x1a, 0x3c, 0xc4, 0xeb, 0xc1, 0x3d, 0xee, 0x60, 0x97, 0x3e,
  0xb2, 0x2d, 0x01, 0x3e, 0xaa, 0xca, 0x9b, 0x3e, 0x80, 0x73, 0xe4, 0x3e,
  0x3f, 0x55, 0x4d, 0x3e, 0x26, 0x7e, 0xc0, 0x3c, 0x97, 0x26, 0xfb, 0x3c,
  0xd1, 0xe5, 0xb7, 0x3e, 0x5a, 0xbd, 0x9e, 0x3e, 0x57, 0x58, 0xd3, 0x3d,
  0xf8, 0x7e, 0xf7, 0x3e, 0xbe, 0xdf, 0x4c, 0x3e, 0x78, 0x20, 0x9e, 0x3e,
  0x71, 0x65, 0x05, 0x3e, 0x77, 0xcf, 0xc4, 0x3e, 0xfb, 0x52, 0x1b, 0x3d,
  0x73, 0x3b, 0xc0, 0x3e, 0x1e, 0xfa, 0xb8, 0x3d, 0x88, 0xa2, 0x85, 0x3e,
  0x91, 0xfc, 0x0f, 0x3d, 0xde, 0xd1, 0xb1, 0x3d, 0x07, 0xa4, 0x91, 0x3e,
  0x1e, 0xf5, 0x73, 0x3d, 0xc1, 0xf9, 0xee, 0xbc, 0xe7, 0xac, 0x2f, 0x3e,
  0x93, 0x4f, 0x62, 0x3e, 0x9b, 0xb9, 0xb0, 0x3d, 0xda, 0xb9, 0xc3, 0x3e,
  0xb7, 0xaf, 0x66, 0xbc, 0x80, 0x15, 0x2d, 0xb7, 0x47, 0x3b, 0x30, 0x3e,
  0xf0, 0xf4, 0xf1, 0x3d, 0x55, 0x3d, 0x04, 0x3e, 0xa0, 0x34, 0x7a, 0x3e,
  0xaf, 0x4b, 0x99, 0x3d, 0x58, 0xe7, 0x96, 0x3e, 0xd3, 0xa8, 0xe3, 0x3e,
  0x2c, 0x17, 0xd4, 0x3e, 0x83, 0x4e, 0x7a, 0x3e, 0xb6, 0xdf, 0x9a, 0x3d,
  0x1f, 0xdf, 0xd0, 0x3e, 0x05, 0x99, 0xd3, 0x3e, 0x01, 0x28, 0x50, 0x3e,
  0x7e, 0x59, 0x26, 0x3e, 0x6c, 0x05, 0xb4, 0x3e, 0xa0, 0x7e, 0x2f, 0xbd,
  0x96, 0x1b, 0x8e, 0x3e, 0x7f, 0x1d, 0x4a, 0x3e, 0x0c, 0x2f, 0xac, 0x3e,
  0x8b, 0x02, 0xaf, 0x3d, 0xca, 0x66, 0x24, 0x3e, 0xaf, 0xbc, 0x46, 0x3e,
  0xb1, 0x25, 0xb7, 0x3e, 0xa1, 0x10, 0x8e, 0x3d, 0x04, 0x75, 0xc1, 0x3e,
  0x68, 0x05, 0xc3, 0x3e, 0x94, 0x37, 0xc8, 0x3e, 0x08, 0xe3, 0x80, 0x3e,
  0xea, 0xe2, 0xe0, 0x3d, 0xbf, 0x72, 0x1b, 0x3e, 0x3c, 0xdf, 0x7c, 0x3e,
  0x53, 0x8a, 0x23, 0x3e, 0x9c, 0x6e, 0x92, 0x3e, 0x5b, 0x7d, 0xa4, 0x3e,
  0x13, 0xc6, 0x93, 0x3d, 0x80, 0x29, 0x03, 0x3e, 0xb6, 0xe0, 0x31, 0x3d,
  0x42, 0xf3, 0xa9, 0x3e, 0x1a, 0x63, 0xa4, 0x3e, 0xd5, 0x89, 0x90, 0x3e,
  0xad, 0xfe, 0x00, 0x3e, 0xe0, 0xaf, 0x9f, 0x3e, 0x7b, 0x31, 0x85, 0x3e,
  0x15, 0x84, 0x9c, 0xbd, 0xbf, 0xec, 0xc3, 0x3e, 0xdb, 0x5a, 0xc8, 0x3e,
  0xc3, 0x67, 0x7c, 0x3e, 0xd5, 0x14, 0x0e, 0x3e, 0x65, 0xbc, 0x50, 0x3d,
  0xa2, 0xde, 0x41, 0x3d, 0x7b, 0xb8, 0xcb, 0x3d, 0x24, 0xee, 0xbc, 0xbd,
  0x85, 0xfd, 0xda, 0x3e, 0xd7, 0x52, 0x58, 0x3e, 0xe9, 0x30, 0x57, 0x3d,
  0x38, 0xbc, 0x9b, 0x3e, 0x9b, 0xea, 0x4c, 0x3e, 0x64, 0x88, 0xbe, 0x3e,
  0xaa, 0x8c, 0xb3, 0x3d, 0xab, 0xfd, 0x21, 0x3e, 0x18, 0x34, 0xd6, 0xbc,
  0xa0, 0x2b, 0xb8, 0x3e, 0xed, 0x5f, 0x91, 0x3d, 0x22, 0x61, 0x74, 0x3e,
  0xa9, 0x79, 0x62, 0x3e, 0xba, 0xff, 0x0a, 0x3d, 0x01, 0xcb, 0x9f, 0x3d,
  0xb4, 0x7c, 0xc8, 0x3e, 0xf9, 0x22, 0xea, 0x3e, 0xdc, 0x5d, 0xb3, 0x3e,
  0xcc, 0x80, 0x28, 0x3e, 0x9f, 0xb9, 0xb1, 0x3e, 0x62, 0x26, 0x8e, 0x3e,
  0x19, 0xd3, 0xb1, 0x3e, 0x91, 0xd0, 0x17, 0x3e, 0xf0, 0xed, 0x9e, 0x3e,
  0x03, 0x21, 0x4c, 0x3e, 0xcf, 0xb1, 0xaa, 0x3e, 0x47, 0xef, 0xaa, 0x3d,
  0xd2, 0x99, 0x4b, 0x3c, 0x78, 0x83, 0x83, 0x3e, 0xf0, 0x59, 0x54, 0x3e,
  0x79, 0xcd, 0xb7, 0x3d, 0xd0, 0xd0, 0x12, 0x3e, 0xdd, 0xd9, 0x83, 0x3e,
  0xcf, 0x53, 0x9c, 0x3e, 0xdf, 0xb1, 0xbd, 0x3e, 0x63, 0x81, 0x0e, 0x3e,
  0x8c, 0x8e, 0x55, 0x3e, 0x2d, 0xbe, 0x9b, 0x3d, 0x63, 0xfe, 0x93, 0x3e,
  0x9d, 0x08, 0x81, 0x3d, 0x2e, 0x71, 0xf1, 0x3d, 0xc7, 0xb9, 0x05, 0x3d,
  0x87, 0x79, 0xe4, 0x3c, 0xfd, 0xb7, 0xdb, 0x3e, 0x36, 0xfa, 0xcc, 0x3d,
  0x40, 0x69, 0x88, 0xbd, 0x24, 0x70, 0x02, 0x3c, 0xac, 0xc9, 0x2d, 0x3e,
  0xf9, 0xfe, 0xc6, 0xbc, 0x0f, 0xa5, 0x93, 0x3d, 0x48, 0xbc, 0x14, 0x3e,
  0xce, 0xc6, 0xea, 0xbc, 0x9b, 0x76, 0x8d, 0x3e, 0x58, 0x7b, 0x5e, 0x3d,
  0x46, 0x58, 0x97, 0x3e, 0x49, 0x4f, 0x33, 0x3d, 0x78, 0xa8, 0xd4, 0x3e,
  0x5b, 0x51, 0x14, 0x3e, 0x46, 0xaf, 0x89, 0x3e, 0xdb, 0xfe, 0xbe, 0x3e,
  0xa0, 0xc3, 0xa9, 0x3e, 0xe5, 0xe0, 0xc5, 0x3e, 0x56, 0xa2, 0x3e, 0x3d,
  0xbd, 0xa9, 0x29, 0x3e, 0xf0, 0xfd, 0x86, 0x3e, 0x97, 0x8e, 0xbb, 0x3e,
  0xcf, 0xd5, 0xd7, 0x3e, 0x1c, 0x50, 0x94, 0x3e, 0x04, 0xf1, 0xe7, 0x3d,
  0xc2, 0x67, 0x52, 0x3e, 0x60, 0xeb, 0x88, 0x3e, 0x72, 0x88, 0xb7, 0x3e,
  0x35, 0x57, 0x8d, 0x3e, 0xc3, 0x5a, 0x0a, 0x3e, 0x53, 0x18, 0x7a, 0x3b,
  0xa6, 0x8d, 0x52, 0xbd, 0xed, 0xc0, 0x21, 0xbe, 0xc1, 0xae, 0x85, 0x3e,
  0x9f, 0x5f, 0x5b, 0x3e, 0xe7, 0x9e, 0x67, 0x3d, 0x5c, 0x29, 0x80, 0x3e,
  0x2d, 0x89, 0x83, 0x3e, 0x2b, 0x4c, 0xf6, 0x3e, 0x50, 0x05, 0xe3, 0x3e,
  0x14, 0x3e, 0xd0, 0x3d, 0x3c, 0xf8, 0x86, 0x3e, 0x0b, 0xbe, 0x01, 0x3f,
  0x19, 0x55, 0xd1, 0x3e, 0x9b, 0x09, 0xe7, 0x3e, 0xb2, 0x69, 0x67, 0x3e,
  0xa4, 0xd8, 0xae, 0x3e, 0x4d, 0x49, 0x38, 0x3d, 0x41, 0xef, 0xbb, 0x3e,
  0x1b, 0xcd, 0x30, 0x3e, 0xa2, 0x2a, 0x47, 0x3d, 0x71, 0x00, 0x52, 0x3e,
  0xb8, 0x4b, 0x55, 0x3e, 0x89, 0x07, 0x02, 0x3e, 0x59, 0x93, 0x84, 0x3d,
  0x1c, 0x4e, 0xc7, 0x3e, 0xc2, 0x52, 0x64, 0x3e, 0x25, 0xa9, 0x8b, 0x3d,
  0x6b, 0x55, 0x8a, 0x3e, 0x0a, 0x8d, 0x40, 0x3e, 0x74, 0x4c, 0x7f, 0x3e,
  0x64, 0xcf, 0x10, 0x3e, 0xd5, 0x18, 0xf3, 0x3c, 0x1e, 0x3c, 0xdc, 0x3e,
  0x33, 0x6e, 0x5c, 0x3e, 0xe3, 0x87, 0xbb, 0xbd, 0x00, 0x46, 0x92, 0x3d,
  0x42, 0x65, 0x70, 0x3e, 0x2c, 0xb1, 0x46, 0xbe, 0x3a, 0x73, 0x52, 0xbe,
  0x7d, 0xb8, 0x3b, 0xbe, 0xca, 0xbb, 0x4b, 0xbe, 0x54, 0x87, 0x18, 0x3e,
  0x47, 0x55, 0x75, 0xbd, 0xbd, 0xaf, 0x41, 0x3e, 0xcc, 0xfd, 0x05, 0xbe,
  0xec, 0xec, 0xd8, 0x3d, 0x51, 0x47, 0x13, 0x3e, 0x90, 0xff, 0x32, 0xbe,
  0x1d, 0x55, 0xed, 0xbd, 0x2d, 0xdc, 0xdd, 0x3d, 0xb2, 0xab, 0xa9, 0x3a,
  0x57, 0x8d, 0xce, 0xbd, 0x0a, 0x77, 0xf4, 0xbd, 0xa2, 0xae, 0x00, 0xbe,
  0x50, 0x71, 0xb0, 0xbb, 0x9f, 0x4c, 0x45, 0x3d, 0x48, 0x4f, 0x2e, 0xbe,
  0xbb, 0x65, 0x09, 0xbd, 0x9c, 0x93, 0x27, 0xbe, 0xbf, 0x95, 0x14, 0x3e,
  0xbb, 0x1d, 0xa4, 0x3d, 0x27, 0xf7, 0xa6, 0x3d, 0xb5, 0xa0, 0xeb, 0x3d,
  0x25, 0xbd, 0xde, 0xbc, 0x88, 0x3b, 0x33, 0xbe, 0x99, 0x00, 0x88, 0x3d,
  0xb2, 0x54, 0x1b, 0xbe, 0x38, 0x3e, 0x29, 0x3e, 0x1e, 0x0a, 0xd4, 0x3d,
  0x0b, 0x09, 0xbc, 0xbd, 0x24, 0x1f, 0x79, 0xbd, 0x0a, 0x08, 0x84, 0x3d,
  0x3d, 0xe4, 0x05, 0xbe, 0x61, 0x0f, 0xc6, 0x3d, 0xba, 0x55, 0xf4, 0x3c,
  0x4d, 0xc6, 0x06, 0xbe, 0x9e, 0x1b, 0x05, 0xbe, 0x52, 0x63, 0xaf, 0x3d,
  0xca, 0x55, 0x34, 0x3e, 0x2b, 0x1d, 0x33, 0xbd, 0x28, 0xb7, 0x2b, 0x3e,
  0x03, 0xcf, 0xf1, 0x3c, 0x2f, 0x7b, 0x72, 0xbc, 0x44, 0x0d, 0x19, 0x3e,
  0x3b, 0x43, 0x79, 0x3d, 0x4b, 0x8d, 0x07, 0x3c, 0x85, 0xce, 0x2a, 0x3e,
  0x21, 0x7e, 0x02, 0xbe, 0x9e, 0xc9, 0x91, 0x3c, 0xcc, 0x57, 0x46, 0xbe,
  0x00, 0x44, 0x80, 0xbd, 0xb7, 0xf6, 0x0b, 0x3e, 0x76, 0x1e, 0xf5, 0xbd,
  0xd6, 0x13, 0x48, 0x3e, 0x5b, 0xdd, 0x27, 0x3d, 0xc4, 0x1b, 0xfb, 0xbb,
  0xb3, 0xe7, 0x37, 0x3e, 0x7a, 0x03, 0x0e, 0xbe, 0x7b, 0x70, 0x20, 0xbe,
  0x08, 0x2d, 0x01, 0xbe, 0x43, 0x76, 0xf9, 0x3d, 0xef, 0xd2, 0x58, 0x3d,
  0x7e, 0xd1, 0x43, 0xbe, 0x63, 0xd8, 0x88, 0xbd, 0xcd, 0x62, 0xef, 0x3d,
  0x91, 0xad, 0xbb, 0x3b, 0xce, 0xbd, 0x30, 0x3e, 0x01, 0x32, 0xa5, 0x3d,
  0x55, 0xc0, 0x49, 0x3d, 0x22, 0x70, 0xb2, 0xbd, 0x01, 0x9e, 0x25, 0x3d,
  0x9f, 0x97, 0x8f, 0xbd, 0x81, 0x2b, 0x18, 0x3e, 0x19, 0x4d, 0x17, 0x3e,
  0x1e, 0x6f, 0x9c, 0x3d, 0x2e, 0x88, 0x9c, 0x3b, 0x3d, 0xc2, 0x2e, 0xbe,
  0x14, 0xc3, 0xe8, 0x3d, 0xab, 0x43, 0xd9, 0x3d, 0x16, 0xc7, 0x4c, 0x3d,
  0x0a, 0x4b, 0xcb, 0x3d, 0x28, 0x3c, 0x28, 0x3e, 0xe2, 0x67, 0xc6, 0x3d,
  0x5d, 0xcf, 0x8a, 0x3d, 0x94, 0xc0, 0x6d, 0xbe, 0xd6, 0xcc, 0xf4, 0x3d,
  0x8a, 0xa1, 0x03, 0xbe, 0x64, 0xc2, 0x40, 0xbd, 0xe8, 0x94, 0x62, 0xbe,
  0xdc, 0xd2, 0x70, 0x3d, 0xdb, 0xcb, 0xf5, 0xbd, 0x37, 0x1e, 0xab, 0xbc,
  0x6a, 0xaf, 0x2c, 0xbe, 0xe4, 0x6b, 0x87, 0xbd, 0xd4, 0x0d, 0x29, 0xbe,
  0xcf, 0x12, 0xc2, 0x3d, 0x9e, 0x94, 0xcf, 0xbd, 0x1a, 0x74, 0x02, 0xbe,
  0xb5, 0xef, 0xfd, 0xbc, 0x14, 0xb0, 0x4e, 0xbe, 0xc4, 0x36, 0xcb, 0x3d,
  0x79, 0x9c, 0x02, 0x3e, 0x4f, 0x7a, 0xa5, 0xbb, 0x0b, 0xd6, 0x41, 0xbe,
  0x09, 0x3e, 0x28, 0xbe, 0x31, 0xdd, 0x11, 0x3d, 0x1b, 0x41, 0x84, 0x3c,
  0x12, 0x0d, 0x57, 0xbe, 0x88, 0x30, 0x81, 0x3d, 0xf1, 0x15, 0x9f, 0x3d,
  0xf6, 0x35, 0x2c, 0xbd, 0xb5, 0x56, 0x10, 0x3e, 0xc0, 0x45, 0x38, 0x3e,
  0xc8, 0xd4, 0xbe, 0x3b, 0x9c, 0x06, 0x6c, 0xbe, 0x47, 0x93, 0xbb, 0xbd,
  0xa2, 0x5c, 0x2a, 0x3d, 0xdf, 0xe2, 0x10, 0x3e, 0xf4, 0xca, 0x2b, 0xbe,
  0xda, 0xfd, 0x63, 0x3d, 0x16, 0x7a, 0x12, 0xbe, 0xf1, 0xb4, 0x66, 0xbe,
  0x72, 0x45, 0x04, 0x3d, 0xba, 0xec, 0x0a, 0xbe, 0xc7, 0x50, 0x00, 0x3c,
  0xc0, 0x61, 0x8a, 0x3e, 0xcb, 0xe7, 0x85, 0x3e, 0x96, 0x2b, 0x98, 0x3e,
  0x51, 0x2d, 0x03, 0x3e, 0x2c, 0xbe, 0x8b, 0x3e, 0x90, 0x6e, 0x81, 0x3e,
  0x98, 0x5f, 0x9b, 0x3e, 0x67, 0x80, 0x51, 0x3d, 0xa5, 0xbf, 0x62, 0x3e,
  0xba, 0x07, 0x17, 0x3e, 0xbb, 0x2e, 0xab, 0x3e, 0x56, 0x1a, 0xa4, 0x3e,
  0x3a, 0xcb, 0x57, 0x3e, 0xbd, 0x81, 0x12, 0x3d, 0x1e, 0x73, 0xaf, 0x3e,
  0x21, 0x81, 0x35, 0xbd, 0x01, 0xaa, 0x6d, 0x3d, 0x61, 0x2b, 0x3b, 0x3e,
  0x48, 0xd7, 0xb4, 0x3e, 0x9d, 0xe0, 0xd3, 0x3e, 0x56, 0x09, 0xbe, 0x3e,
  0xba, 0x50, 0x9f, 0x3e, 0xa4, 0xc9, 0xb2, 0x3d, 0x5c, 0xde, 0x42, 0x3c,
  0xef, 0x99, 0xdb, 0xba, 0xc6, 0x20, 0x48, 0x3e, 0x70, 0x6b, 0xa5, 0x3e,
  0x27, 0x1f, 0x90, 0xbd, 0x35, 0x85, 0x19, 0xbe, 0x34, 0x38, 0xfd, 0x3d,
  0x2d, 0xb0, 0x77, 0x3e, 0x34, 0x35, 0xcc, 0x3e, 0xdd, 0x6d, 0xe8, 0x3e,
  0x5f, 0xaf, 0xaf, 0x3e, 0x5d, 0xb0, 0x93, 0x3e, 0x4f, 0x22, 0x39, 0x3e,
  0x08, 0x9b, 0x90, 0x3d, 0xcf, 0xee, 0xda, 0x3e, 0x2e, 0x67, 0xbe, 0x3e,
  0xb6, 0x5b, 0x96, 0x3e, 0xa8, 0x26, 0x85, 0x3e, 0xb9, 0xb3, 0xa6, 0x3e,
  0xd6, 0x14, 0x42, 0x3e, 0x8d, 0xa9, 0x11, 0x3e, 0xa2, 0x45, 0xad, 0x3e,
  0x03, 0x00, 0xad, 0x3e, 0xe7, 0x11, 0x64, 0x3e, 0x26, 0x4c, 0xd9, 0x3e,
  0x46, 0x3f, 0x84, 0x3e, 0x18, 0x70, 0x5c, 0x3e, 0x5a, 0x12, 0x8f, 0x3e,
  0x2a, 0x83, 0x01, 0x3d, 0xb9, 0x99, 0x2b, 0x3e, 0x52, 0x28, 0x12, 0x3e,
  0x3f, 0x8c, 0x50, 0x3e, 0x0e, 0xe7, 0x7d, 0x3e, 0x47, 0x4a, 0x28, 0x3e,
  0xbb, 0x27, 0xaa, 0x3d, 0x7e, 0xc1, 0x87, 0x3e, 0x78, 0x0a, 0xd9, 0x3e,
  0x77, 0x7d, 0x02, 0x3e, 0x76, 0xc2, 0x54, 0xbd, 0xaf, 0x24, 0xc1, 0x3e,
  0x01, 0xe1, 0x97, 0x3e, 0x7b, 0x0c, 0xfb, 0x3d, 0xd8, 0x6f, 0xb4, 0x3c,
  0x23, 0xfc, 0x31, 0x3e, 0x94, 0x9c, 0xc9, 0xbc, 0x14, 0x21, 0xbd, 0x3e,
  0x3e, 0xa0, 0xca, 0x3e, 0x79, 0x51, 0x70, 0x3e, 0xfe, 0xca, 0x9c, 0x3d,
  0x53, 0x2f, 0x7b, 0x3e, 0x7b, 0xf2, 0x0b, 0x3e, 0x12, 0x90, 0xc2, 0x3e,
  0x18, 0x1d, 0xc7, 0x3e, 0xb5, 0x90, 0xb5, 0x3e, 0x49, 0x58, 0x59, 0x3e,
  0x52, 0xb2, 0xa6, 0x3e, 0xa6, 0xd1, 0xa8, 0xbc, 0x79, 0xbc, 0x67, 0x3d,
  0xb9, 0xec, 0xec, 0x3d, 0xb9, 0x79, 0x3b, 0x3e, 0x33, 0x04, 0x33, 0x3e,
  0x65, 0x20, 0xbf, 0x3e, 0x73, 0xe0, 0x9d, 0x3d, 0x4f, 0x78, 0x99, 0x3e,
  0xf4, 0x6f, 0xa9, 0x3e, 0x30, 0xa2, 0xbb, 0xbb, 0x71, 0x1b, 0xb4, 0x3e,
  0x4d, 0x30, 0x81, 0x3e, 0xea, 0xbe, 0x63, 0x3e, 0x39, 0x5c, 0xa6, 0x3d,
  0xed, 0x0f, 0xae, 0x3c, 0xef, 0x98, 0x82, 0x3e, 0x68, 0xed, 0xb5, 0x3e,
  0x19, 0x23, 0xed, 0x3e, 0x0f, 0x7e, 0x82, 0x3e, 0x75, 0x38, 0xa5, 0x3e,
  0xee, 0x63, 0x97, 0x3d, 0x81, 0x30, 0x80, 0x3e, 0x7f, 0xb5, 0x24, 0x3e,
  0xf9, 0xa9, 0xe3, 0x3e, 0xa6, 0xbf, 0xbe, 0x3e, 0x94, 0x33, 0x58, 0x3e,
  0x4c, 0x1c, 0x06, 0x3e, 0x4a, 0x9a, 0xf0, 0x3d, 0xc2, 0xf4, 0xbc, 0x3e,
  0xac, 0x7e, 0x44, 0x3e, 0x42, 0xd2, 0xc9, 0x3e, 0x13, 0xd8, 0xd4, 0x3e,
  0xdb, 0x96, 0x0d, 0x3e, 0xe4, 0x46, 0x46, 0x3e, 0x97, 0x82, 0x62, 0x3d,
  0x89, 0x23, 0xb2, 0x3e, 0x14, 0xbd, 0x07, 0x3e, 0xef, 0x36, 0xde, 0x3e,
  0x2f, 0xa0, 0xaf, 0x3e, 0x60, 0xf1, 0x94, 0x3c, 0xc4, 0xca, 0xe7, 0x3d,
  0xc3, 0x31, 0x9c, 0xbc, 0x31, 0x03, 0x2b, 0xbd, 0x9b, 0xdd, 0x8a, 0x3e,
  0x3f, 0x99, 0xa7, 0x3d, 0xaf, 0x96, 0x68, 0x3e, 0x92, 0x0c, 0xc1, 0x3d,
  0x1d, 0xaa, 0x52, 0x3d, 0x1c, 0x09, 0xf1, 0x3d, 0xb8, 0xc6, 0x0b, 0xbe,
  0x90, 0x06, 0x34, 0xbe, 0x8c, 0x99, 0x5f, 0xbe, 0xae, 0x9d, 0x83, 0x3d,
  0x50, 0x9f, 0xaa, 0x3d, 0x0d, 0x11, 0x64, 0xbe, 0xd8, 0xea, 0x92, 0xbc,
  0xd0, 0x66, 0xd2, 0x3d, 0xc1, 0xba, 0x08, 0x3e, 0x62, 0x2f, 0x2f, 0xbe,
  0x15, 0x6a, 0x1a, 0xbd, 0x82, 0x0c, 0x15, 0xbe, 0x00, 0x9c, 0x7e, 0xbd,
  0x09, 0xc0, 0x45, 0x3e, 0x4c, 0xa1, 0x4d, 0xbd, 0xee, 0x12, 0xd3, 0x3d,
  0xeb, 0xb4, 0xd7, 0xbd, 0xf2, 0xd6, 0x51, 0xbe, 0x33, 0xba, 0xda, 0xbd,
  0x13, 0x1a, 0xc2, 0xbd, 0x9e, 0xe1, 0x2a, 0xbe, 0x05, 0x59, 0xdb, 0x3d,
  0x4d, 0xc8, 0x00, 0x3e, 0xb6, 0x8f, 0xc0, 0x3d, 0x4f, 0x8a, 0x35, 0xbe,
  0x64, 0x25, 0x38, 0x3d, 0x5d, 0xd2, 0x2f, 0xbe, 0x10, 0x3d, 0x27, 0xbd,
  0x60, 0x1e, 0x4c, 0xbe, 0x8a, 0x47, 0x46, 0x3c, 0xb4, 0xf0, 0x19, 0xbe,
  0x2a, 0xa4, 0x84, 0x3d, 0x5d, 0xa1, 0x11, 0x3e, 0x35, 0xdb, 0x4b, 0xbe,
  0xf4, 0x26, 0x1d, 0xbe, 0xca, 0x71, 0x6a, 0xbd, 0x41, 0xd5, 0x4b, 0x3e,
  0x35, 0xcd, 0xf6, 0xbd, 0xb9, 0xb0, 0xa9, 0xbd, 0x50, 0x31, 0x30, 0xbe,
  0x55, 0x9f, 0xbd, 0x3b, 0x9e, 0x06, 0x43, 0x3e, 0x92, 0x65, 0x19, 0xbd,
  0x51, 0x4d, 0x65, 0xbc, 0x40, 0x7b, 0xb6, 0xbd, 0xae, 0xd4, 0x00, 0xbd,
  0xe8, 0xcf, 0x52, 0xbe, 0x6f, 0xc2, 0x4c, 0xbe, 0x12, 0x9b, 0xe4, 0x3d,
  0xfb, 0x12, 0x19, 0xbe, 0xa5, 0x13, 0x88, 0x3d, 0x42, 0x3a, 0x26, 0xbe,
  0x99, 0x3f, 0x08, 0x3e, 0x11, 0xee, 0x5a, 0xbe, 0xb2, 0xa2, 0xac, 0xbd,
  0x32, 0x0a, 0xa3, 0x3d, 0xd7, 0x25, 0x1d, 0x3e, 0x4c, 0x1a, 0x43, 0xbe,
  0x62, 0x4b, 0x3e, 0x3e, 0x05, 0x60, 0x54, 0xbe, 0x52, 0xbf, 0x0e, 0xbe,
  0x97, 0xfe, 0x58, 0xbe, 0x70, 0x58, 0x4a, 0x3e, 0x8d, 0xbe, 0x28, 0xbe,
  0x06, 0x6f, 0x13, 0x3e, 0x96, 0x20, 0xd5, 0x3e, 0xcc, 0xec, 0xd8, 0x3e,
  0x5f, 0xd4, 0xb9, 0x3e, 0x97, 0xd0, 0x40, 0x3d, 0x17, 0x39, 0xb5, 0x3e,
  0x9c, 0xae, 0xe2, 0x3d, 0x5a, 0x54, 0x8d, 0x3e, 0x6c, 0xce, 0xe2, 0x3e,
  0xcf, 0xa7, 0x2b, 0x3e, 0x1a, 0xbc, 0xe3, 0x3a, 0x03, 0xc8, 0xdf, 0x3e,
  0xc0, 0x78, 0x71, 0x3d, 0x01, 0x38, 0xcf, 0x3d, 0x39, 0xcb, 0xd0, 0x3e,
  0x9c, 0x49, 0x9f, 0x3d, 0x0b, 0xfd, 0x06, 0x3e, 0x7f, 0x7c, 0x55, 0x3d,
  0x68, 0x28, 0x83, 0x3e, 0x93, 0x5f, 0xd0, 0x3d, 0xb7, 0xec, 0xe9, 0x3d,
  0xab, 0x39, 0x2f, 0x3e, 0x6b, 0x7f, 0x6a, 0x3e, 0x2d, 0x07, 0x49, 0x3e,
  0xa7, 0x8e, 0x8d, 0x3e, 0x0a, 0x0b, 0xae, 0x3d, 0xb9, 0x76, 0xa6, 0x3e,
  0xe0, 0x54, 0x5c, 0xbd, 0x30, 0xaf, 0x2b, 0xbd, 0xe4, 0x11, 0x18, 0x3e,
  0x98, 0xd4, 0x58, 0x3d, 0xa6, 0x1c, 0x4f, 0x3e, 0xe5, 0xb4, 0x1e, 0x3e,
  0xf0, 0xd4, 0xaa, 0x3e, 0x86, 0x2a, 0x9f, 0x3e, 0xc5, 0xf8, 0xc3, 0x3e,
  0x41, 0x6b, 0xcf, 0x3e, 0xa7, 0x06, 0xb4, 0x3e, 0x48, 0xf3, 0x8c, 0x3e,
  0xcc, 0x98, 0x66, 0x3e, 0x37, 0x38, 0xd6, 0x3e, 0x7a, 0xe2, 0xbd, 0xbd,
  0xc4, 0x8f, 0x24, 0x3e, 0xff, 0xa5, 0x52, 0x3e, 0x82, 0x6c, 0x89, 0x3e,
  0xd0, 0x6e, 0x3d, 0x3e, 0xf3, 0x9c, 0x74, 0x3e, 0xa1, 0x79, 0xf3, 0x3e,
  0x17, 0xa3, 0x3e, 0x3e, 0xe5, 0x30, 0xb1, 0x3e, 0xa2, 0x18, 0xf7, 0x3d,
  0x82, 0xb7, 0xbb, 0x3d, 0x8e, 0xae, 0x9d, 0x3e, 0x30, 0xfb, 0xa7, 0x3e,
  0x5e, 0x8e, 0x59, 0x3e, 0xc9, 0xdb, 0x2d, 0x3e, 0xeb, 0x31, 0xce, 0x3d,
  0x44, 0xb8, 0x8d, 0x3e, 0xe3, 0xa8, 0xbe, 0x3e, 0xf8, 0xdc, 0xf9, 0x3e,
  0x5a, 0xb7, 0x95, 0x3e, 0x60, 0x02, 0x99, 0x3d, 0xd2, 0x66, 0xb1, 0x3e,
  0xea, 0xf7, 0x06, 0x3e, 0x7e, 0x56, 0xe0, 0x3d, 0x7f, 0x9c, 0xda, 0x3e,
  0xc0, 0x8f, 0x4f, 0x3e, 0x1b, 0x42, 0x3f, 0x3e, 0x17, 0x75, 0xa4, 0x3e,
  0x59, 0x21, 0x4a, 0x3e, 0xcb, 0xe3, 0x92, 0x3e, 0x82, 0xda, 0x1b, 0xbd,
  0xa7, 0x46, 0x0e, 0x3e, 0xab, 0x13, 0x80, 0x3e, 0xb2, 0x3b, 0xae, 0x3e,
  0x0d, 0x20, 0x21, 0x3d, 0x53, 0x3a, 0xd8, 0x3e, 0x63, 0xca, 0x9a, 0x3e,
  0xe5, 0x96, 0x91, 0x3e, 0xd7, 0x7d, 0x86, 0x3e, 0x82, 0x5f, 0xc1, 0x3e,
  0x20, 0x70, 0xb3, 0x3e, 0x83, 0x1d, 0x22, 0x3e, 0x90, 0x3c, 0x23, 0x3e,
  0x96, 0xa2, 0x9a, 0x3e, 0xee, 0x85, 0x22, 0x3e, 0x36, 0xd2, 0xbd, 0x3e,
  0xb1, 0x17, 0x5c, 0x3d, 0xeb, 0x3c, 0xc4, 0x3e, 0x08, 0x0d, 0xa7, 0x3e,
  0xf6, 0x08, 0x8e, 0x3e, 0xdb, 0x9f, 0x90, 0x3e, 0x0d, 0x7b, 0xaf, 0xbd,
  0xcc, 0x6e, 0x92, 0x3e, 0xd1, 0x79, 0x6d, 0x3e, 0xf6, 0xbc, 0x2e, 0x3e,
  0x5a, 0xa5, 0xcd, 0x3e, 0xa0, 0xd1, 0x8e, 0x3e, 0xa1, 0x44, 0x22, 0x3e,
  0x7a, 0xe1, 0x6e, 0x3e, 0xfd, 0x52, 0x96, 0x3e, 0x5e, 0x9a, 0x37, 0x3e,
  0xb9, 0xc8, 0xaf, 0x3e, 0x86, 0x8f, 0x47, 0x3e, 0xd7, 0x4d, 0x89, 0x3e,
  0xbd, 0x93, 0x10, 0x3e, 0xe7, 0x59, 0x7a, 0x3e, 0x2c, 0x59, 0x1a, 0x3e,
  0x3c, 0x9e, 0x4c, 0x3e, 0xe6, 0x81, 0x09, 0x3e, 0xfe, 0xa5, 0x42, 0x3d,
  0xa3, 0x79, 0xca, 0x3d, 0xf2, 0x6c, 0xdd, 0x3e, 0xd6, 0x84, 0x46, 0x3e,
  0xec, 0x61, 0xb7, 0x3d, 0x91, 0xc5, 0xbf, 0x3d, 0xc2, 0xea, 0xd2, 0x3e,
  0x26, 0xac, 0xac, 0x3e, 0xba, 0x90, 0x90, 0x3d, 0xa7, 0x3f, 0x68, 0x3d,
  0xc8, 0x55, 0x2e, 0x3e, 0xd1, 0x18, 0x2f, 0xbd, 0xce, 0x9c, 0xb7, 0x3d,
  0xe9, 0x04, 0xcf, 0x3e, 0xd0, 0x4f, 0x9d, 0x3e, 0xba, 0x5f, 0x6d, 0xbd,
  0x60, 0xd6, 0xb8, 0x3e, 0x79, 0xda, 0x18, 0x3e, 0x65, 0xb4, 0x88, 0x3e,
  0x76, 0x1c, 0x94, 0x3e, 0x8d, 0x0e, 0x2d, 0x3e, 0x30, 0xdd, 0x9b, 0xbc,
  0x1d, 0x70, 0x8d, 0x3e, 0xf0, 0xb5, 0x95, 0x3e, 0x07, 0x67, 0x00, 0xbb,
  0x53, 0x14, 0xa3, 0xbd, 0xcb, 0x33, 0xf5, 0x3e, 0x72, 0x14, 0x82, 0x3d,
  0x91, 0xad, 0xcc, 0x3e, 0x0a, 0xe3, 0x15, 0x3e, 0xf0, 0x5c, 0xc7, 0x3e,
  0x98, 0x12, 0x9c, 0x3e, 0x8e, 0xe2, 0x82, 0x3e, 0x4b, 0xd7, 0x14, 0x3e,
  0xfa, 0x38, 0xe0, 0x3c, 0xa1, 0xff, 0x19, 0x3e, 0xcc, 0xac, 0x05, 0x3e,
  0xbb, 0x7e, 0x91, 0x3e, 0x4c, 0x8d, 0xa4, 0xbc, 0x2f, 0xb3, 0xe8, 0x3d,
  0x33, 0xf6, 0x84, 0x3e, 0xc6, 0x40, 0x86, 0x3e, 0x92, 0x2c, 0xda, 0x3d,
  0xed, 0x88, 0xd8, 0x3c, 0x68, 0xbd, 0x7b, 0x3e, 0xe8, 0xa5, 0x1d, 0xbd,
  0x43, 0x95, 0x67, 0x3e, 0xdb, 0x47, 0x87, 0x3e, 0xa1, 0xe7, 0xb9, 0x3e,
  0x29, 0x3c, 0x48, 0x3d, 0x5e, 0xe9, 0x86, 0x3d, 0xb8, 0x00, 0xed, 0x3d,
  0x1f, 0xe3, 0x8d, 0x3e, 0xd9, 0x59, 0xab, 0x3e, 0x97, 0x02, 0x64, 0x3e,
  0x49, 0x19, 0x18, 0x3e, 0xac, 0x45, 0xb6, 0x3d, 0x3a, 0x31, 0xdc, 0x3e,
  0xf3, 0x80, 0x55, 0x3e, 0x21, 0xc4, 0x45, 0x3e, 0x88, 0xe2, 0xbc, 0x3e,
  0xfc, 0x7d, 0x01, 0x3e, 0xee, 0xb3, 0x25, 0x3e, 0x7b, 0x6e, 0xb8, 0x3e,
  0xba, 0x08, 0x60, 0x3e, 0xc0, 0x1b, 0xcf, 0x3e, 0x41, 0x1e, 0xf1, 0x3d,
  0xf1, 0x9e, 0x9d, 0x3e, 0x98, 0xce, 0x47, 0x3e, 0xd1, 0xdf, 0xa4, 0x3e,
  0x29, 0xea, 0x9e, 0x3e, 0x65, 0x39, 0x41, 0xbc, 0x0c, 0x4f, 0xc6, 0x3d,
  0x40, 0x0c, 0x57, 0x3e, 0x1b, 0x71, 0xb7, 0x3e, 0x43, 0xb1, 0x41, 0x3e,
  0x07, 0x11, 0xd6, 0x3e, 0x76, 0x5a, 0x4e, 0x3e, 0x05, 0x71, 0xad, 0x3e,
  0x76, 0xe2, 0x85, 0x3e, 0x16, 0x49, 0xbd, 0x3e, 0xd3, 0x08, 0x85, 0x3d,
  0x67, 0x48, 0xaf, 0x3d, 0x17, 0x1c, 0x69, 0x3d, 0x86, 0xed, 0x15, 0xbb,
  0x8d, 0xa2, 0x68, 0x3d, 0x6b, 0x70, 0x56, 0xbe, 0x1f, 0x1e, 0xaa, 0xbc,
  0xb8, 0x21, 0x07, 0xbd, 0xf8, 0xb2, 0xbf, 0xbb, 0x9a, 0xcc, 0x0b, 0xbe,
  0xb7, 0xef, 0x77, 0xbd, 0x3b, 0xbd, 0x33, 0x3e, 0x11, 0x4a, 0x74, 0xbe,
  0xc0, 0x85, 0x2e, 0x3e, 0xc8, 0x3f, 0xb1, 0xbd, 0xe5, 0xee, 0x06, 0x3e,
  0x33, 0xcf, 0x1a, 0xbe, 0x7d, 0x5c, 0x56, 0xbe, 0x02, 0x9f, 0xcb, 0x3c,
  0x54, 0xcd, 0xa8, 0x3c, 0x37, 0x3f, 0xeb, 0x3d, 0x0b, 0x27, 0x0b, 0xbd,
  0x86, 0x4c, 0xfd, 0x3d, 0xae, 0x81, 0x49, 0xbd, 0x4e, 0xbe, 0x9f, 0xbd,
  0x6c, 0x09, 0x00, 0xbe, 0xa3, 0x96, 0x8d, 0xbd, 0x7e, 0x47, 0x30, 0xbd,
  0x37, 0xfa, 0x36, 0x3e, 0x96, 0x0d, 0x0b, 0xbe, 0x0c, 0xe2, 0x0e, 0xbe,
  0x11, 0x16, 0x0f, 0x3e, 0x1c, 0x54, 0xd8, 0xbd, 0x3e, 0x4e, 0x0c, 0x3e,
  0xac, 0x53, 0x17, 0xbe, 0x8f, 0x8e, 0x87, 0x3d, 0x02, 0x9f, 0xb6, 0xbd,
  0x6e, 0x1f, 0xfd, 0x3d, 0x7b, 0x35, 0xbd, 0xbd, 0xd8, 0x20, 0xcb, 0x3d,
  0x2a, 0x43, 0x74, 0xbe, 0x33, 0x63, 0x05, 0x3e, 0xd1, 0xa3, 0xcf, 0xbd,
  0xcf, 0x96, 0x8b, 0xbd, 0xd2, 0xe4, 0xb5, 0xbd, 0xca, 0xd9, 0x12, 0x3e,
  0x81, 0xb5, 0x20, 0x3d, 0x22, 0x63, 0x0b, 0x3e, 0xa1, 0x2d, 0x21, 0xbd,
  0x9d, 0x07, 0x1f, 0x3d, 0xa7, 0x3c, 0x85, 0x3d, 0x7e, 0x23, 0x77, 0xbc,
  0xad, 0xf7, 0x9a, 0x3b, 0x77, 0x80, 0x72, 0xbe, 0xbf, 0x10, 0x89, 0xbd,
  0x1a, 0x22, 0xc7, 0x3d, 0xb2, 0x3b, 0x3b, 0x3e, 0x68, 0xba, 0x0c, 0xbd,
  0xd8, 0xbb, 0x1b, 0xbe, 0x5d, 0x38, 0x3e, 0xbe, 0x91, 0xbc, 0x37, 0xbd,
  0xfa, 0xfd, 0x3c, 0xbd, 0x97, 0x9b, 0xfa, 0x3c, 0x40, 0x31, 0x2e, 0xbe,
  0xb7, 0x34, 0xff, 0x3d, 0x9f, 0x7d, 0x73, 0x3e, 0x4e, 0x05, 0x73, 0x3e,
  0xd2, 0xd9, 0x1a, 0x3d, 0xc9, 0x39, 0x08, 0x3e, 0x64, 0x9d, 0xd5, 0x3d,
  0x81, 0x4c, 0xe0, 0x3e, 0x49, 0xab, 0x45, 0x3c, 0xb7, 0x9d, 0x84, 0x3e,
  0xf9, 0xf9, 0x8e, 0x3e, 0x98, 0x49, 0xa4, 0x3e, 0xd5, 0x66, 0xb1, 0x3e,
  0x81, 0x62, 0xc0, 0x3e, 0x92, 0xe9, 0xa7, 0x3d, 0x99, 0xb7, 0x7b, 0x3e,
  0x4f, 0x18, 0x51, 0x3e, 0x03, 0x13, 0x05, 0x3e, 0x78, 0xf8, 0x8e, 0x3e,
  0x77, 0x7d, 0xa5, 0x3e, 0xac, 0xb0, 0x06, 0x3e, 0x98, 0xe5, 0xe2, 0x3e,
  0x93, 0xde, 0x9f, 0x3e, 0xa1, 0xad, 0x96, 0x3e, 0x2b, 0x5f, 0x60, 0x3d,
  0x21, 0x99, 0xee, 0x3d, 0x0c, 0x3e, 0xda, 0x3d, 0x27, 0xb6, 0x90, 0x3e,
  0xe6, 0x78, 0x81, 0x3e, 0x3a, 0x76, 0xb9, 0x3d, 0xf6, 0xb8, 0x82, 0x3e,
  0x79, 0xd1, 0xb4, 0x3e, 0x3b, 0xc4, 0x9f, 0x3e, 0xa6, 0xc3, 0x07, 0x3d,
  0x9e, 0x5e, 0x9a, 0x3e, 0x6b, 0x71, 0x5f, 0x3e, 0xd5, 0x27, 0xf5, 0x3e,
  0x62, 0xd4, 0x54, 0x3e, 0x7b, 0x56, 0x8b, 0x3e, 0xdb, 0xf2, 0xdc, 0x3e,
  0x97, 0x0b, 0x60, 0x3e, 0x91, 0x8b, 0xc6, 0x3e, 0xb4, 0x9d, 0x37, 0x3e,
  0xbf, 0xf7, 0x6a, 0xbd, 0xe9, 0x14, 0x55, 0x3e, 0x04, 0x22, 0x6a, 0x3e,
  0xb5, 0xb5, 0x9a, 0x3e, 0x1b, 0x6f, 0x9c, 0x3c, 0x2c, 0xe5, 0xc8, 0x3e,
  0xf3, 0x63, 0x45, 0x3e, 0xcc, 0x37, 0xb3, 0x3d, 0xf6, 0x00, 0xf9, 0x3d,
  0x19, 0xd2, 0xc3, 0x3d, 0xf0, 0x71, 0xcd, 0x3e, 0x34, 0x78, 0x8b, 0x3e,
  0x5c, 0x78, 0x4c, 0x3e, 0x4d, 0xa0, 0xc9, 0x3e, 0xfe, 0xa8, 0x37, 0x3e,
  0x46, 0xc9, 0x87, 0x3d, 0x18, 0xb2, 0x59, 0x3e, 0xc8, 0xd1, 0x86, 0x3e,
  0xfa, 0xac, 0x96, 0x3e, 0xdc, 0x0b, 0xbf, 0x3e, 0x72, 0xc9, 0x9e, 0x3e,
  0xbb, 0x35, 0x0a, 0x3d, 0x48, 0xc7, 0x30, 0x3e, 0x68, 0x6f, 0x89, 0x3d,
  0x85, 0xc8, 0x1e, 0xbe, 0x41, 0x66, 0xda, 0xbd, 0x5b, 0x19, 0x35, 0x3e,
  0x29, 0x35, 0xa0, 0x3c, 0xbd, 0xee, 0x24, 0xbe, 0x0c, 0xf0, 0x05, 0x3d,
  0xa0, 0x4e, 0xe8, 0x3b, 0xb3, 0x4a, 0xdb, 0xbd, 0xfc, 0x25, 0xcf, 0x3c,
  0x21, 0x83, 0x37, 0xbe, 0xd5, 0x2c, 0x5f, 0xbe, 0xae, 0xc9, 0x3d, 0x3e,
  0x00, 0x4e, 0x35, 0x3e, 0xf1, 0xda, 0x10, 0x3e, 0xe0, 0x31, 0x26, 0xbe,
  0x0d, 0xde, 0x1b, 0xbe, 0x30, 0xfb, 0x47, 0x3d, 0x38, 0x55, 0xfa, 0x3d,
  0x42, 0xb7, 0x26, 0x3e, 0x1a, 0xe9, 0x5f, 0x3d, 0xff, 0xcf, 0x6e, 0xbd,
  0xd8, 0xd5, 0x0c, 0xbc, 0x39, 0x26, 0x02, 0xbe, 0x8b, 0x68, 0xa7, 0xbd,
  0xc5, 0xee, 0x00, 0x3d, 0x09, 0xe8, 0x21, 0xbe, 0x17, 0x2b, 0x50, 0xbe,
  0xd6, 0xf6, 0x25, 0xbe, 0xdb, 0xb6, 0x30, 0x3d, 0xb4, 0xda, 0xd7, 0x3d,
  0x3e, 0x2c, 0x12, 0xbe, 0x16, 0xb2, 0x43, 0xbe, 0xc2, 0xf4, 0x5d, 0xbd,
  0xdb, 0x91, 0x6b, 0x3d, 0x2d, 0xd1, 0xab, 0x3d, 0x05, 0xb2, 0x25, 0xbe,
  0xe2, 0x99, 0x17, 0x3e, 0x6e, 0x33, 0x8f, 0x3d, 0x4e, 0x38, 0x19, 0xbe,
  0xa9, 0xdb, 0x0f, 0xbe, 0x5c, 0x9f, 0xa6, 0x3d, 0x7c, 0x0a, 0x28, 0xbe,
  0x9d, 0x83, 0x1f, 0x3e, 0x7a, 0x00, 0xdc, 0x3d, 0x13, 0x77, 0x91, 0xbb,
  0x79, 0x33, 0x16, 0x3e, 0x86, 0x35, 0xc1, 0xbc, 0x1e, 0x43, 0x0e, 0xbe,
  0x2b, 0x14, 0x2c, 0x3d, 0xa0, 0xe3, 0x13, 0xbd, 0xbc, 0x03, 0x6b, 0xbe,
  0xab, 0x79, 0xb9, 0x3d, 0x81, 0x30, 0x53, 0xbd, 0xc4, 0x2f, 0x2f, 0x3e,
  0x39, 0x21, 0x13, 0xbd, 0x4b, 0x1f, 0x7a, 0xbe, 0xf1, 0x2f, 0x9b, 0xbd,
  0xec, 0xc6, 0x12, 0x3e, 0xfe, 0xec, 0x7e, 0x3d, 0x72, 0x29, 0x0d, 0xbb,
  0x06, 0x5a, 0x3b, 0x3e, 0x65, 0x27, 0x0c, 0x3e, 0xb4, 0xaf, 0x44, 0x3e,
  0x07, 0xc0, 0xec, 0x3d, 0x60, 0x0a, 0x72, 0x3e, 0x8b, 0x44, 0xdb, 0x3d,
  0xe7, 0xb6, 0xa5, 0x3e, 0x42, 0x8a, 0xed, 0x3d, 0xc4, 0x9d, 0xd1, 0x3e,
  0x6b, 0xa5, 0x5f, 0x3c, 0x9a, 0x01, 0x38, 0x3e, 0x0d, 0x98, 0xef, 0x3e,
  0xb2, 0x66, 0x91, 0x3e, 0x4e, 0x6f, 0x9c, 0x3e, 0x7f, 0x16, 0x4b, 0x3e,
  0xd2, 0x56, 0x27, 0x3e, 0xcf, 0x74, 0xfc, 0x3d, 0xbb, 0x29, 0x44, 0x3e,
  0x52, 0xde, 0x01, 0xbe, 0x64, 0x79, 0x77, 0x3e, 0x29, 0x82, 0xe4, 0x3d,
  0x00, 0xf2, 0x78, 0x3e, 0xc6, 0xe7, 0xa1, 0x3d, 0x4f, 0xfc, 0x81, 0x3e,
  0xc2, 0x4f, 0xaf, 0x3b, 0xa9, 0x24, 0x9e, 0x3e, 0x3d, 0xd5, 0x2c, 0x3d,
  0x35, 0xf4, 0xae, 0x3e, 0x3b, 0xcb, 0x5c, 0x3e, 0xcf, 0xa8, 0x2f, 0x3e,
  0xf6, 0xe0, 0xf8, 0x3d, 0x26, 0x42, 0x36, 0xbd, 0xbc, 0x04, 0x36, 0x3e,
  0x5c, 0x10, 0xd8, 0x3e, 0x33, 0xce, 0xdb, 0x3e, 0xff, 0xe2, 0xa1, 0x3e,
  0x90, 0xe2, 0xed, 0x3d, 0x4b, 0x53, 0x03, 0x3e, 0xb9, 0x43, 0xc2, 0x3d,
  0x51, 0x39, 0x96, 0x3d, 0x9a, 0x86, 0x9d, 0x3e, 0x47, 0xf0, 0x53, 0x3e,
  0xfb, 0x14, 0xe3, 0x3e, 0xd1, 0x7e, 0x81, 0x3e, 0xca, 0xd5, 0x1f, 0x3d,
  0x35, 0xd4, 0x5d, 0x3e, 0x2e, 0xa7, 0x97, 0x3e, 0xcc, 0xc1, 0xd2, 0x3e,
  0x7b, 0x97, 0x80, 0x3e, 0x0a, 0xca, 0x2b, 0x3e, 0xc6, 0xdf, 0x69, 0x3e,
  0x4d, 0xe3, 0xd1, 0x3e, 0x2d, 0x8b, 0x9e, 0x3e, 0x72, 0xe3, 0xb3, 0x3e,
  0x4a, 0x51, 0x3b, 0x3e, 0x56, 0x7f, 0xd1, 0x3e, 0xf6, 0xa5, 0xdb, 0x3e,
  0xdd, 0x01, 0x48, 0x3e, 0xbc, 0x46, 0xd8, 0x3e, 0x89, 0x1d, 0xb9, 0x3e,
  0x23, 0xb2, 0x3b, 0x3e, 0xb2, 0xee, 0x50, 0x3e, 0xba, 0x8d, 0xb6, 0x3e,
  0xc5, 0xaf, 0xe5, 0x3d, 0x04, 0xe9, 0x9e, 0x3e, 0x1f, 0xd6, 0x8a, 0x3e,
  0x7b, 0xf0, 0x4f, 0x3d, 0xfa, 0x7c, 0x8a, 0x3d, 0x0c, 0xa7, 0xdc, 0x3d,
  0x10, 0x9d, 0xd3, 0x3c, 0xb0, 0x17, 0x14, 0x3e, 0xd8, 0xc8, 0x26, 0xbd,
  0xe8, 0x27, 0x65, 0xbe, 0xf4, 0x89, 0x9c, 0x3d, 0xb9, 0xd0, 0x65, 0xbe,
  0x5e, 0x61, 0x98, 0x3d, 0x0f, 0x92, 0x4c, 0x3e, 0xac, 0x71, 0xbd, 0x3d,
  0xb8, 0x5c, 0xb6, 0xbc, 0x62, 0x7f, 0x50, 0xbd, 0x7f, 0x25, 0x1f, 0x3e,
  0x9e, 0xb3, 0x1b, 0xbd, 0xdf, 0x5f, 0x91, 0x3d, 0xdf, 0xad, 0xb4, 0xbd,
  0x67, 0xca, 0xcf, 0x3d, 0x6f, 0x34, 0x74, 0xbd, 0x1d, 0x8f, 0x96, 0xbd,
  0xb4, 0x44, 0x6e, 0xbe, 0x91, 0x1d, 0x7f, 0xbd, 0xd3, 0xd7, 0x61, 0xbe,
  0x6f, 0x47, 0x06, 0xbe, 0x88, 0x4e, 0x14, 0x3e, 0x76, 0xb3, 0x71, 0xbc,
  0x5b, 0x7e, 0x2a, 0xbe, 0x53, 0xe7, 0xdd, 0x3c, 0xf2, 0xe6, 0x27, 0xbd,
  0x01, 0x2a, 0x62, 0xbe, 0xb6, 0x44, 0x21, 0xbe, 0xaf, 0xf3, 0x43, 0xbd,
  0x0e, 0xe8, 0x07, 0x3e, 0x0b, 0xde, 0x79, 0xbb, 0x9e, 0x72, 0xdd, 0xbd,
  0xa4, 0xc2, 0xf1, 0x3c, 0x4c, 0xcc, 0x8e, 0x3b, 0x46, 0x0d, 0xeb, 0x3d,
  0x1a, 0x6c, 0xeb, 0x3c, 0x87, 0xca, 0xb2, 0xbd, 0xc7, 0x23, 0x3b, 0xbe,
  0x54, 0xa1, 0xde, 0xbd, 0xb6, 0xbd, 0x4d, 0xbd, 0x3d, 0x1e, 0x96, 0xbd,
  0xd3, 0xb2, 0x3b, 0x3e, 0xe9, 0x53, 0x33, 0xbe, 0x9d, 0xd4, 0x06, 0x3e,
  0xa1, 0x47, 0x19, 0x3e, 0x87, 0x73, 0xa8, 0x3d, 0x6c, 0x15, 0xa8, 0xbd,
  0x84, 0xe3, 0x50, 0x3d, 0x0c, 0xb0, 0x84, 0x3d, 0xfb, 0xbd, 0x14, 0xbd,
  0xf1, 0xb9, 0xe2, 0x3d, 0x37, 0x78, 0xaa, 0x3d, 0xd1, 0x12, 0x07, 0xbe,
  0xbb, 0x28, 0xb8, 0x3d, 0xa3, 0x89, 0x50, 0x3c, 0x0c, 0x48, 0x5f, 0xbe,
  0x94, 0xa8, 0x4f, 0xbd, 0xcd, 0x84, 0x04, 0xbb, 0xd5, 0x1f, 0x0d, 0xbe,
  0xde, 0x10, 0xf3, 0xbc, 0x9e, 0xee, 0x1e, 0x3d, 0x23, 0xf1, 0x99, 0xbd,
  0xf0, 0x40, 0xf8, 0x3d, 0x83, 0x70, 0x9a, 0xbd, 0xc7, 0xf8, 0x71, 0xbc,
  0x12, 0xcf, 0x57, 0xbe, 0x3a, 0x89, 0x40, 0x3e, 0x10, 0xff, 0x37, 0xbe,
  0x44, 0x6f, 0x01, 0x3e, 0xa4, 0xe4, 0xcf, 0xbd, 0xd4, 0xcc, 0x57, 0xbd,
  0x13, 0xa6, 0x12, 0x3e, 0x88, 0x62, 0xf0, 0x3d, 0x0d, 0x56, 0x5e, 0xbe,
  0x37, 0x12, 0x1a, 0x3d, 0x9b, 0xa8, 0xf8, 0xbd, 0xc0, 0x41, 0x47, 0xbe,
  0x4a, 0xcb, 0xe3, 0xbd, 0x2f, 0x22, 0x22, 0x3e, 0x33, 0x3b, 0xc3, 0x3d,
  0xf0, 0x13, 0xb5, 0xbd, 0xfd, 0x00, 0x24, 0x3e, 0x0a, 0xd9, 0xe4, 0x3d,
  0x18, 0xb7, 0x13, 0xbe, 0x35, 0x04, 0x39, 0xbe, 0x9f, 0xaf, 0x51, 0xbe,
  0x46, 0xb9, 0x58, 0x3d, 0x72, 0x26, 0xd7, 0x3d, 0x47, 0x5b, 0xdd, 0xbd,
  0xae, 0xd4, 0xb9, 0x3d, 0xa8, 0xce, 0x49, 0x3d, 0x42, 0x2c, 0x19, 0xbe,
  0x2a, 0xf6, 0x6e, 0xbe, 0x05, 0xd5, 0x43, 0x3e, 0x5e, 0xe0, 0x33, 0xbe,
  0xbf, 0x27, 0x41, 0xbc, 0x0b, 0x3d, 0x08, 0x3d, 0xca, 0x09, 0xe5, 0xbc,
  0xcf, 0x03, 0x48, 0x3d, 0x44, 0x1b, 0x38, 0x3e, 0x8d, 0x06, 0x5f, 0xbe,
  0x9b, 0x08, 0x8e, 0x3d, 0x0b, 0x42, 0xa1, 0xbd, 0xd8, 0x07, 0x12, 0x3d,
  0x7d, 0x5c, 0x0f, 0xbe, 0x2c, 0x0d, 0x46, 0xbe, 0xbb, 0x35, 0x1f, 0xbd,
  0xc4, 0x85, 0x18, 0xbd, 0xec, 0x38, 0x3c, 0xbe, 0x6b, 0x25, 0x64, 0xbd,
  0x3e, 0xb2, 0x0d, 0xbd, 0x84, 0x37, 0xb0, 0x3d, 0x18, 0x62, 0xea, 0x3d,
  0x78, 0xfa, 0x82, 0x3d, 0x2f, 0x9f, 0x2b, 0xbe, 0x3b, 0x52, 0x0a, 0xbe,
  0x6c, 0x0c, 0x44, 0x3e, 0xd1, 0x81, 0x23, 0x3d, 0x2e, 0x82, 0xf6, 0x3d,
  0x72, 0x81, 0xbc, 0xbd, 0xb5, 0x15, 0x1f, 0x3e, 0x2c, 0x26, 0x2a, 0x3e,
  0x75, 0x0f, 0xff, 0x3d, 0x80, 0x2f, 0xb5, 0xbd, 0x91, 0x5a, 0x8c, 0x3d,
  0xff, 0x47, 0x9c, 0x3d, 0x3a, 0xab, 0x10, 0xbe, 0x54, 0x28, 0x1a, 0xbe,
  0x60, 0x28, 0x96, 0xbc, 0x80, 0x88, 0x10, 0xbe, 0x17, 0x67, 0x2a, 0xbe,
  0x5c, 0xdc, 0xe9, 0xbd, 0x80, 0x46, 0x0f, 0xbd, 0xa0, 0x27, 0x4a, 0xbe,
  0x52, 0x04, 0x0f, 0xbe, 0xd0, 0xd7, 0xd9, 0xbd, 0xe8, 0x1c, 0x20, 0x3e,
  0x29, 0xcb, 0xa7, 0xbd, 0xcb, 0x1c, 0x3d, 0xbe, 0x13, 0x85, 0x31, 0x3e,
  0xfb, 0x7c, 0x43, 0xbd, 0x08, 0xc1, 0x26, 0xbe, 0xe3, 0x43, 0x3a, 0xbe,
  0xc1, 0x53, 0x1d, 0x3d, 0x29, 0xea, 0x1e, 0xbe, 0x63, 0x1a, 0x4f, 0xbe,
  0xa0, 0x8f, 0x54, 0x3c, 0xad, 0x54, 0x0f, 0xbd, 0x92, 0x48, 0xad, 0x3c,
  0x83, 0x6e, 0xc6, 0x3a, 0x77, 0xb3, 0x0c, 0x3e, 0xf0, 0xfc, 0xc4, 0x3b,
  0xae, 0x2e, 0xce, 0xbd, 0xdb, 0x84, 0x07, 0xbd, 0xe4, 0x3e, 0x44, 0x3d,
  0xc0, 0x93, 0x0b, 0xbe, 0xcb, 0xc7, 0x52, 0x3e, 0x40, 0x47, 0x2b, 0xbd,
  0xd3, 0xa2, 0x4a, 0x3e, 0xad, 0xa6, 0xb9, 0x3c, 0xf3, 0x0f, 0xe4, 0xbd,
  0xfa, 0xe1, 0xe7, 0x3d, 0xc0, 0x49, 0xd2, 0xbc, 0x11, 0xf3, 0x24, 0x3e,
  0xda, 0x26, 0xa3, 0x3d, 0x8a, 0x73, 0x82, 0xbd, 0x2b, 0x1a, 0xef, 0xbd,
  0x11, 0x27, 0x20, 0x3e, 0xde, 0xae, 0x1e, 0x3e, 0x48, 0xcd, 0x0f, 0xbe,
  0x41, 0xcd, 0x5b, 0xbe, 0xf2, 0x57, 0xb3, 0x3d, 0x5b, 0x37, 0xe3, 0x3d,
  0xd6, 0xaf, 0xe4, 0xbd, 0x69, 0x77, 0x24, 0x3e, 0x9c, 0x8c, 0x48, 0xbe,
  0xc1, 0x40, 0xcd, 0x3d, 0xa5, 0x93, 0xb1, 0x3d, 0x37, 0x3e, 0x4a, 0x3e,
  0x4d, 0xe1, 0x47, 0x3e, 0xa4, 0x1d, 0x58, 0xbe, 0x4b, 0x90, 0x24, 0xbe,
  0xe6, 0x3d, 0x4c, 0xbe, 0x5f, 0x31, 0xf1, 0x3d, 0x18, 0x18, 0xfa, 0xbd,
  0x62, 0xf5, 0xd5, 0x3d, 0x3c, 0x18, 0xd0, 0xbd, 0xc6, 0x7a, 0x15, 0xbd,
  0x03, 0xd3, 0x0d, 0xbe, 0xbb, 0xda, 0x86, 0x3d, 0x89, 0x7d, 0x78, 0x3d,
  0xbd, 0xf1, 0x40, 0x3e, 0x30, 0x0b, 0x86, 0x3e, 0x12, 0x44, 0xb5, 0x3d,
  0x7f, 0xdd, 0xc2, 0x3e, 0xfd, 0x7f, 0xd5, 0x3e, 0xfd, 0x7d, 0x3c, 0xbd,
  0x75, 0x0a, 0x50, 0x3e, 0x31, 0xb2, 0x22, 0x3e, 0xce, 0x22, 0xba, 0x3e,
  0x5d, 0xd8, 0x96, 0x3e, 0xac, 0x4c, 0x64, 0x3e, 0x90, 0x42, 0x9d, 0x3e,
  0x12, 0x83, 0x57, 0x3d, 0xa9, 0x00, 0x88, 0xbd, 0x01, 0xba, 0x3b, 0x3d,
  0x3a, 0xa6, 0xf5, 0x3d, 0xd0, 0x22, 0xd6, 0x3d, 0xe1, 0xb6, 0xd1, 0x3e,
  0x93, 0xbe, 0x4e, 0x3e, 0x26, 0x3d, 0x05, 0x3e, 0x21, 0xb8, 0xaa, 0x3e,
  0x8d, 0x24, 0xac, 0x3e, 0x80, 0x92, 0xf9, 0x3d, 0x7d, 0x82, 0x0a, 0x3e,
  0x8a, 0xdd, 0xa9, 0x3b, 0x6d, 0x06, 0x11, 0x3e, 0x98, 0xab, 0xdc, 0x3d,
  0x1a, 0xe8, 0xbc, 0x3e, 0x4a, 0xc4, 0xcc, 0x3e, 0x4c, 0xa6, 0x9f, 0x3e,
  0x4e, 0xbe, 0x73, 0x3e, 0x81, 0x14, 0x8c, 0x3e, 0x2d, 0xd3, 0xca, 0x3e,
  0xe8, 0x5c, 0xe2, 0x3e, 0xb5, 0x79, 0xe9, 0x3e, 0xb1, 0xc9, 0xa0, 0x3e,
  0x95, 0x21, 0xfc, 0x3e, 0x0a, 0xe2, 0xab, 0x3e, 0xa5, 0x08, 0xc7, 0x3e,
  0x0c, 0x7d, 0x9f, 0x3e, 0x31, 0xd7, 0x16, 0x3d, 0x7b, 0xa5, 0xa8, 0x3e,
  0x43, 0xa7, 0x87, 0x3e, 0xd7, 0xd5, 0x94, 0x3e, 0x04, 0x3a, 0xb8, 0x3e,
  0x52, 0xfc, 0x8b, 0x3e, 0x2c, 0x6b, 0x7b, 0x3e, 0x53, 0x59, 0x9f, 0x3e,
  0xe9, 0x50, 0xec, 0x3e, 0xc2, 0x32, 0x3b, 0x3d, 0xbc, 0xd7, 0xa0, 0x3e,
  0x3c, 0x8b, 0x91, 0x3e, 0xc1, 0xba, 0xc9, 0x3e, 0x68, 0x6e, 0x9b, 0x3e,
  0x45, 0xf9, 0xca, 0x3d, 0xc7, 0x0b, 0x56, 0x3d, 0x21, 0x1c, 0xac, 0x3d,
  0xdc, 0xd2, 0xf2, 0x3e, 0x0b, 0x6b, 0x0b, 0x3e, 0x34, 0xec, 0x9c, 0xbd,
  0x71, 0x44, 0x2f, 0x3e, 0x37, 0x07, 0x04, 0xbc, 0xbc, 0x88, 0x21, 0xbe,
  0x93, 0xd1, 0x1c, 0xbe, 0x17, 0x37, 0x76, 0xbd, 0xe7, 0x19, 0x16, 0x3c,
  0x36, 0x56, 0x41, 0x3e, 0xc0, 0x76, 0x5f, 0xbe, 0xaf, 0x8d, 0x0f, 0xbe,
  0x8e, 0x59, 0x1d, 0xbe, 0x7e, 0x52, 0x0c, 0xbe, 0xf6, 0x43, 0x44, 0xbe,
  0xdd, 0x27, 0x0c, 0x3e, 0xeb, 0xac, 0x06, 0xbe, 0xf8, 0x4f, 0xb8, 0x3c,
  0xed, 0x3d, 0xbb, 0x3d, 0x0b, 0xaf, 0x06, 0xbe, 0x6e, 0x66, 0xd6, 0x3d,
  0x97, 0xec, 0xb5, 0xbd, 0x65, 0x13, 0x67, 0xbe, 0x73, 0xe7, 0xa9, 0x3d,
  0xfe, 0x27, 0x1d, 0xbe, 0xc9, 0xc9, 0x39, 0x3e, 0x97, 0xa8, 0xf3, 0x3d,
  0xd6, 0xb2, 0x08, 0x3e, 0xa7, 0x01, 0x90, 0xbc, 0x72, 0x58, 0x33, 0xbd,
  0x90, 0x67, 0x2d, 0xbe, 0xad, 0xa9, 0xa9, 0xbd, 0xa9, 0xb5, 0xdb, 0xbd,
  0x01, 0xc0, 0xae, 0x3d, 0x24, 0x27, 0x14, 0x3e, 0x12, 0x3e, 0xf3, 0x3d,
  0x62, 0xe3, 0x45, 0x3e, 0xca, 0x53, 0x19, 0x3d, 0xac, 0xd3, 0x73, 0xbe,
  0x2e, 0xe3, 0x76, 0x3d, 0x40, 0x9d, 0x60, 0xbe, 0x52, 0x42, 0xb3, 0x3d,
  0x34, 0x7b, 0xcb, 0xbc, 0xa7, 0xe7, 0x34, 0x3e, 0x47, 0xb7, 0xfe, 0x3c,
  0xfe, 0xd5, 0x8e, 0xbd, 0x50, 0x42, 0x53, 0x3e, 0xa9, 0x26, 0x53, 0xbe,
  0x17, 0x2e, 0x05, 0xbe, 0x82, 0xb1, 0xb1, 0x3d, 0xb7, 0x97, 0x62, 0xbe,
  0xc0, 0xc8, 0x0d, 0x3e, 0x99, 0xf5, 0xa4, 0xbd, 0xc3, 0x71, 0x5c, 0xbe,
  0x20, 0xd5, 0xf2, 0xbd, 0x61, 0x42, 0x64, 0x3d, 0xed, 0x32, 0x5f, 0x3d,
  0xeb, 0xd4, 0x3f, 0x3e, 0x57, 0x00, 0x2f, 0x3e, 0xcd, 0x9b, 0x8b, 0xbd,
  0x75, 0x43, 0xce, 0xbd, 0x7c, 0xd5, 0x69, 0x3d, 0x45, 0xcc, 0xad, 0x3d,
  0x27, 0xd4, 0x6d, 0xbc, 0x5d, 0x78, 0xdf, 0x3d, 0xdd, 0x20, 0x04, 0x3e,
  0xcf, 0xed, 0x71, 0xbd, 0x3e, 0x1c, 0xa8, 0xbd, 0x32, 0x37, 0x81, 0x3d,
  0xc6, 0x4d, 0x9f, 0x3d, 0x72, 0x98, 0x54, 0xbe, 0x04, 0xb2, 0x68, 0xbe,
  0x1b, 0xa8, 0xe9, 0xbc, 0x17, 0x2a, 0x24, 0x3e, 0x63, 0x7c, 0x5f, 0xbe,
  0x61, 0x13, 0x0c, 0x3e, 0x58, 0xd2, 0xfa, 0x3c, 0x8f, 0x4c, 0x9c, 0xbd,
  0x9b, 0xbf, 0xa5, 0xbd, 0xbc, 0xaa, 0xa3, 0xbc, 0x19, 0x0c, 0x0e, 0x3e,
  0x53, 0xf4, 0x65, 0xbe, 0xa9, 0x7e, 0x0f, 0x3e, 0x7e, 0x6a, 0x06, 0x3e,
  0xbe, 0x95, 0x25, 0x3e, 0xaa, 0xfc, 0x3a, 0x3d, 0x54, 0x81, 0x26, 0x3d,
  0xc5, 0x52, 0xf7, 0xbd, 0x80, 0x20, 0x51, 0xbd, 0x9a, 0x15, 0xd2, 0xbd,
  0x8f, 0xec, 0x1d, 0x3d, 0x45, 0x4b, 0x28, 0xbe, 0x60, 0x42, 0x22, 0x3e,
  0x06, 0x4e, 0x2e, 0xbe, 0x02, 0x58, 0x08, 0x3e, 0xea, 0x3b, 0x1e, 0xbe,
  0x1b, 0x0b, 0x43, 0xbe, 0xae, 0xb8, 0xb6, 0x3d, 0xc1, 0x87, 0xe2, 0x3d,
  0xf2, 0x8d, 0xd7, 0xbd, 0x9a, 0x29, 0x23, 0x3e, 0x2f, 0x32, 0x21, 0x3e,
  0x88, 0x9e, 0x45, 0xbe, 0x93, 0x5d, 0x2b, 0xbc, 0x9d, 0x1e, 0x07, 0x3e,
  0x18, 0x47, 0xcd, 0x3d, 0xe1, 0x9a, 0x21, 0x3e, 0x50, 0x83, 0xbd, 0x3a,
  0x7a, 0x2c, 0x86, 0x3d, 0xc4, 0xe4, 0xb5, 0x3d, 0x14, 0xfb, 0x14, 0x3e,
  0x18, 0x92, 0xf7, 0xbd, 0x6d, 0xa2, 0x8f, 0xbd, 0x2a, 0xf5, 0xe2, 0x3d,
  0x83, 0x21, 0x18, 0xbd, 0x1d, 0x5f, 0x3b, 0xbe, 0x9f, 0x59, 0xa4, 0xba,
  0x29, 0xf9, 0xb5, 0xbd, 0x19, 0x4d, 0x9f, 0xbd, 0xdf, 0xae, 0x00, 0xbd,
  0x20, 0xb1, 0x62, 0xbe, 0xd4, 0xa9, 0x63, 0xbd, 0x86, 0x63, 0x42, 0xbe,
  0xe9, 0x4d, 0xdf, 0x3d, 0xea, 0xa2, 0x23, 0xbd, 0xbe, 0x1d, 0xed, 0x3d,
  0xda, 0xf8, 0xbe, 0x3d, 0x5e, 0x9c, 0x3f, 0xbe, 0xe3, 0x55, 0x37, 0xbe,
  0x56, 0xac, 0xef, 0xbd, 0x6c, 0xd6, 0x24, 0xbe, 0xf6, 0x04, 0x46, 0xbd,
  0x53, 0x6e, 0x40, 0xbe, 0x25, 0x7d, 0xb3, 0x3e, 0xe6, 0xae, 0xa2, 0x3e,
  0x5e, 0xad, 0x5f, 0x3e, 0xd0, 0x51, 0x73, 0x3e, 0xbf, 0x78, 0x6b, 0x3e,
  0xdc, 0xf0, 0xbf, 0x3e, 0x54, 0xf3, 0xe0, 0x3d, 0x9c, 0xe6, 0x7e, 0x3e,
  0xdd, 0x5f, 0xec, 0x3d, 0x8b, 0x28, 0x93, 0x3d, 0xc8, 0x8b, 0x5d, 0x3e,
  0x6b, 0xde, 0x85, 0x3d, 0xb9, 0x23, 0xce, 0x3e, 0xd6, 0xca, 0x48, 0x3d,
  0x15, 0x5d, 0x56, 0x3e, 0x22, 0x7e, 0x25, 0xbd, 0x52, 0x51, 0x8c, 0x3e,
  0x76, 0xb2, 0xa2, 0x3e, 0xb8, 0x68, 0xba, 0x3e, 0xb3, 0xd2, 0xa9, 0x3d,
  0xf6, 0x24, 0x1a, 0x3e, 0xd1, 0x9d, 0x80, 0x3e, 0x04, 0x1b, 0x49, 0x3e,
  0x8a, 0x65, 0x39, 0x3d, 0x7a, 0x9f, 0x03, 0x3e, 0xa0, 0x2e, 0xe1, 0x3c,
  0x31, 0xf2, 0x2c, 0x3e, 0x94, 0xb6, 0xe5, 0xbd, 0x98, 0x18, 0xea, 0x3d,
  0x67, 0x62, 0xcb, 0x3e, 0xb8, 0x88, 0x4b, 0x3e, 0xfc, 0x99, 0x33, 0x3d,
  0x32, 0x42, 0x78, 0x3e, 0xd1, 0x5d, 0xc0, 0x3e, 0x45, 0xd2, 0xcf, 0x3e,
  0x03, 0x06, 0xd9, 0x3d, 0x97, 0xc4, 0xac, 0x3e, 0xb2, 0x07, 0x52, 0x3d,
  0x9e, 0xee, 0xf7, 0x3e, 0xf7, 0x37, 0x9c, 0x3e, 0x42, 0x55, 0x61, 0x3e,
  0xe5, 0xbc, 0xec, 0x3d, 0x3a, 0x5d, 0x3f, 0x3d, 0x66, 0x17, 0x32, 0xbc,
  0x7d, 0xfe, 0xef, 0x3d, 0xe8, 0x91, 0xb8, 0x3e, 0x9f, 0x93, 0xce, 0x3e,
  0x91, 0xb6, 0xae, 0x3e, 0xec, 0x2f, 0x06, 0x3e, 0xda, 0xe3, 0x4d, 0x3e,
  0x86, 0xdd, 0x88, 0x3e, 0x8c, 0xe8, 0x54, 0x3d, 0x6c, 0x8c, 0xe4, 0x3e,
  0x8e, 0x79, 0xca, 0x3e, 0x2e, 0xe1, 0xbd, 0x3d, 0x6a, 0xf6, 0xb5, 0x3e,
  0x1c, 0x72, 0x60, 0x3e, 0xf2, 0x5a, 0xfd, 0xbc, 0xb8, 0x17, 0x32, 0x3e,
  0x2e, 0x42, 0x81, 0x3e, 0x2d, 0x82, 0x5d, 0x3e, 0x12, 0xc4, 0x2d, 0xbd,
  0xb4, 0xb0, 0x08, 0x3e, 0x63, 0x39, 0x8d, 0x3d, 0x1a, 0x3b, 0x41, 0xbe,
  0xa0, 0x6a, 0x5f, 0xbe, 0x10, 0x92, 0xdc, 0xbc, 0xcb, 0x34, 0x19, 0x3d,
  0xc1, 0x6f, 0x40, 0x3e, 0x6e, 0x8c, 0xbd, 0x3d, 0xca, 0x28, 0xf9, 0x3d,
  0x5c, 0x97, 0x4b, 0xbb, 0xa1, 0xe4, 0xc2, 0x3d, 0xe4, 0x05, 0x46, 0x3c,
  0xbf, 0x1f, 0xee, 0x3d, 0x5c, 0x6c, 0x1a, 0xbd, 0x6e, 0xcf, 0x02, 0xbe,
  0x66, 0xbf, 0x22, 0xbe, 0x46, 0xc0, 0x5b, 0x3d, 0x9e, 0xc4, 0x03, 0x3e,
  0x44, 0x3c, 0xa1, 0x3d, 0x4b, 0x12, 0x6a, 0x3c, 0xf0, 0xda, 0x59, 0xbe,
  0x89, 0xc1, 0x83, 0xbc, 0x3c, 0xc3, 0x52, 0x3e, 0x27, 0xd6, 0xc0, 0xba,
  0x62, 0x88, 0xd7, 0x3c, 0x28, 0x1e, 0xb2, 0x3d, 0xd0, 0x60, 0x0c, 0xbd,
  0xf8, 0x17, 0x4b, 0xbd, 0xb3, 0xba, 0xef, 0xbd, 0x77, 0x68, 0xb5, 0xbd,
  0x7c, 0x73, 0x1f, 0x3e, 0x47, 0xca, 0xcc, 0xbd, 0x2c, 0xd8, 0x3c, 0x3e,
  0x7f, 0xf1, 0xac, 0x3c, 0x8c, 0x64, 0x1f, 0xbd, 0x22, 0x18, 0x47, 0xbe,
  0x32, 0xf9, 0x04, 0x3e, 0xab, 0xb7, 0xd7, 0xbd, 0xb9, 0xbf, 0xe4, 0x3b,
  0x14, 0xea, 0x42, 0x3d, 0x13, 0xa6, 0xbc, 0xbd, 0xa7, 0x7d, 0x06, 0x3e,
  0x59, 0xd8, 0xca, 0xbd, 0x7c, 0x05, 0x41, 0xbe, 0x3b, 0x22, 0x3e, 0xbe,
  0x38, 0x06, 0x39, 0x3d, 0xf3, 0xec, 0x20, 0xbc, 0x85, 0xdd, 0x09, 0xbe,
  0x38, 0x49, 0x43, 0xbe, 0x53, 0xc1, 0x60, 0xbd, 0x6f, 0xf3, 0xfd, 0xbd,
  0xa7, 0x72, 0xed, 0xbd, 0x0d, 0x9d, 0x0e, 0x3e, 0x22, 0x5e, 0x64, 0x3c,
  0xac, 0xbe, 0xac, 0x3d, 0x5d, 0x5f, 0xd5, 0xbd, 0xf5, 0xd1, 0x35, 0x3d,
  0x23, 0x4d, 0xeb, 0xbd, 0x52, 0xdd, 0xfb, 0xbd, 0x34, 0x65, 0x0d, 0xbd,
  0x26, 0xb5, 0x14, 0xbe, 0xb1, 0x51, 0x04, 0x3e, 0x78, 0x76, 0x3d, 0xbe,
  0x53, 0x2b, 0x57, 0x3d, 0x0d, 0x08, 0x2e, 0x3e, 0x1b, 0xb1, 0x9e, 0x3d,
  0x5c, 0xbb, 0x22, 0x3e, 0xec, 0xbf, 0x6f, 0xbe, 0xba, 0x76, 0x0e, 0xbe,
  0x4e, 0xf7, 0x0e, 0x3e, 0x70, 0xbd, 0x18, 0xbe, 0xed, 0xf2, 0x05, 0x3e,
  0x84, 0x26, 0xab, 0xbc, 0x5c, 0x27, 0x33, 0xbe, 0x46, 0xca, 0x6e, 0xbe,
  0x97, 0x5f, 0x29, 0x3e, 0x38, 0xcb, 0x1e, 0x3e, 0x66, 0xa1, 0x51, 0x3d,
  0x58, 0xdd, 0x33, 0xbe, 0x6e, 0xaf, 0x64, 0xbd, 0x06, 0x6f, 0x58, 0xbe,
  0x51, 0x5a, 0x9c, 0x3d, 0x7f, 0x95, 0xe3, 0xbd, 0xb9, 0x79, 0x8b, 0xbd,
  0xcd, 0x6e, 0x09, 0x3e, 0xc5, 0x0a, 0x2a, 0x3d, 0x7a, 0x93, 0xf9, 0xbc,
  0x94, 0x3a, 0x23, 0x3d, 0x7c, 0xa7, 0xc4, 0x3d, 0xa2, 0x50, 0x5c, 0xbe,
  0x78, 0x20, 0xfd, 0xbd, 0x80, 0x6d, 0xd1, 0x3d, 0xdf, 0x28, 0x7b, 0xbb,
  0xee, 0x67, 0xff, 0xbc, 0x34, 0x41, 0xe8, 0xbc, 0x1b, 0x35, 0x69, 0xbd,
  0xa5, 0x44, 0x29, 0x3e, 0x7c, 0x74, 0x74, 0xbe, 0x3f, 0x5f, 0xe3, 0xbc,
  0x47, 0xa7, 0x55, 0xbd, 0x26, 0x90, 0xed, 0x3d, 0x61, 0x1f, 0x08, 0x3e,
  0x26, 0x2d, 0x07, 0x3e, 0xcb, 0xc1, 0x86, 0xbd, 0x5b, 0xa8, 0x1b, 0x3e,
  0x28, 0xe1, 0x6d, 0x3d, 0xa6, 0x9a, 0x2c, 0x3e, 0xa9, 0xc6, 0x26, 0xbe,
  0xf3, 0x48, 0xf3, 0x3d, 0xfc, 0xf8, 0x12, 0xbe, 0xa5, 0x8c, 0x4a, 0xbe,
  0xd7, 0x98, 0x7b, 0x3c, 0x57, 0x1f, 0xab, 0xbd, 0x00, 0x40, 0x0a, 0xbd,
  0x51, 0xe4, 0xd3, 0xbd, 0xff, 0x6f, 0xd9, 0x3d, 0x26, 0xca, 0x20, 0x3e,
  0xc9, 0x45, 0xa3, 0x3b, 0x7f, 0xce, 0x06, 0x3e, 0x1f, 0x54, 0xe3, 0xbd,
  0xb9, 0x4d, 0xd6, 0x3d, 0x2a, 0x57, 0x4a, 0xbe, 0xf7, 0xd5, 0x03, 0xbd,
  0x02, 0xf9, 0xcb, 0xbd, 0x52, 0xea, 0x63, 0xbc, 0xa8, 0x68, 0x10, 0x3d,
  0xd5, 0x50, 0x1b, 0x3e, 0x04, 0x3e, 0x21, 0xbd, 0x0a, 0x5c, 0x01, 0x3c,
  0x22, 0x6d, 0x80, 0xbe, 0xd9, 0x70, 0xdc, 0x3d, 0xeb, 0x5a, 0x17, 0x3e,
  0x51, 0xa3, 0x99, 0x3e, 0xd4, 0x84, 0x4b, 0x3e, 0x4c, 0x9d, 0x4d, 0x3e,
  0x5d, 0x9a, 0x8b, 0x3e, 0x57, 0x0a, 0xc3, 0x3e, 0x74, 0x65, 0x8d, 0xbc,
  0xf4, 0xe9, 0xd6, 0x3e, 0x66, 0x2f, 0x6f, 0x3d, 0xb7, 0x8e, 0x64, 0xba,
  0x2d, 0xbe, 0x47, 0x3e, 0x8a, 0x2b, 0x6f, 0x3e, 0x57, 0x4c, 0x85, 0x3c,
  0x7b, 0x9f, 0x16, 0x3d, 0xd0, 0xe9, 0x3f, 0x3d, 0x18, 0xbd, 0x7f, 0x3d,
  0x09, 0x69, 0xc0, 0x3e, 0x87, 0x67, 0xb9, 0x3e, 0x39, 0xd8, 0xaf, 0x3e,
  0x69, 0x6c, 0x8f, 0x3e, 0xdc, 0x1e, 0x70, 0x3e, 0x7a, 0xcd, 0x51, 0x3e,
  0x54, 0xc3, 0x99, 0x3d, 0x1e, 0xe9, 0xa1, 0x3e, 0xf4, 0x7e, 0xa4, 0x3e,
  0xa6, 0x4a, 0x3a, 0xbd, 0x48, 0x9d, 0xbf, 0x3d, 0xbf, 0x97, 0x85, 0xbd,
  0x72, 0xde, 0xc6, 0x3e, 0x35, 0x9f, 0xe2, 0x3d, 0x41, 0x05, 0xca, 0x3e,
  0x5b, 0x73, 0xbc, 0x3e, 0x6e, 0xc0, 0xee, 0x3e, 0x06, 0xf7, 0xf1, 0x3d,
  0x20, 0x7c, 0x5d, 0x3e, 0x7d, 0xea, 0xaf, 0x3e, 0x2b, 0x9d, 0xd7, 0x3e,
  0x91, 0xe3, 0x00, 0x3e, 0x7d, 0xeb, 0x22, 0x3e, 0x12, 0xd4, 0x5e, 0x3e,
  0x68, 0xd5, 0xf5, 0x3d, 0x6c, 0x73, 0xb5, 0x3e, 0x9f, 0x8d, 0x25, 0xbd,
  0x28, 0x3f, 0x68, 0x3d, 0xf3, 0xb3, 0xbf, 0x3d, 0xca, 0x6d, 0xb9, 0x3d,
  0x8e, 0xe1, 0x9d, 0x3e, 0xce, 0xad, 0x46, 0x3e, 0x2f, 0x5b, 0x66, 0x3e,
  0xfd, 0xa1, 0x08, 0x3e, 0xb8, 0x02, 0x54, 0x3e, 0x00, 0x15, 0xd9, 0x3e,
  0x0f, 0x1b, 0xcb, 0x3e, 0x66, 0xc3, 0xda, 0x3c, 0x6f, 0x31, 0xf9, 0x3d,
  0x12, 0x1f, 0xcf, 0xbb, 0xf9, 0x3f, 0xaf, 0x3e, 0xf8, 0x39, 0xb0, 0x3e,
  0x5c, 0x9c, 0xf9, 0x3d, 0x2b, 0x11, 0x67, 0x3e, 0x28, 0xaa, 0x59, 0x3e,
  0x90, 0xae, 0x67, 0xbc, 0xaa, 0x91, 0xa7, 0x3c, 0xa5, 0x2c, 0x0b, 0x3e,
  0xb3, 0xa7, 0xc5, 0x3d, 0x13, 0xdd, 0x62, 0xbd, 0x8a, 0x61, 0x3a, 0x3e,
  0xd6, 0x7d, 0x3d, 0x3d, 0xca, 0x15, 0xb4, 0x3c, 0x0e, 0xea, 0xcd, 0xbd,
  0xe1, 0xe9, 0xd2, 0xbc, 0xf5, 0xe1, 0xa5, 0x3d, 0x4a, 0xc2, 0xe5, 0x3d,
  0xcb, 0x1d, 0xb8, 0x3d, 0x15, 0x08, 0xe2, 0x3d, 0x1a, 0xd6, 0x65, 0xbe,
  0xa0, 0x7c, 0x01, 0x3e, 0xcf, 0x13, 0x80, 0x3c, 0x72, 0x76, 0xa9, 0x3d,
  0xe5, 0xbc, 0x01, 0xbe, 0xf4, 0x8d, 0xce, 0x3d, 0x9c, 0x13, 0x2c, 0x3d,
  0xec, 0x3f, 0x57, 0xbe, 0x19, 0xd9, 0xd7, 0x3d, 0x2a, 0x23, 0x7d, 0xbe,
  0x03, 0xe4, 0x14, 0xbe, 0x74, 0x63, 0x27, 0x3e, 0xf2, 0x60, 0xb4, 0x3d,
  0x01, 0xd1, 0x99, 0xbd, 0x74, 0x36, 0x80, 0xbe, 0xcc, 0xda, 0x59, 0xbe,
  0xd5, 0x0e, 0xf0, 0x3b, 0xb7, 0x4c, 0x7f, 0xbb, 0xa0, 0xd1, 0xb2, 0xbd,
  0x8a, 0xbf, 0x07, 0x3b, 0xfe, 0xfd, 0x5b, 0xbe, 0x89, 0xca, 0xa9, 0xbd,
  0x77, 0x3f, 0x1d, 0x3e, 0x70, 0xea, 0xd8, 0x3d, 0xd1, 0x28, 0x3f, 0xbd,
  0xb8, 0x99, 0x01, 0x3e, 0xde, 0x83, 0x9e, 0x3d, 0x33, 0x37, 0x9a, 0xbd,
  0x0e, 0xf3, 0x6b, 0x3d, 0xbd, 0xe1, 0x16, 0x3e, 0xca, 0x3b, 0x9c, 0x3c,
  0xda, 0x7f, 0x16, 0xbc, 0x9e, 0x78, 0x67, 0xbe, 0xc0, 0x42, 0x38, 0x3e,
  0xd6, 0xd8, 0x30, 0x3d, 0x4b, 0x3b, 0xa4, 0xbd, 0xc2, 0x66, 0xc3, 0x3d,
  0x03, 0x18, 0xed, 0xbc, 0x5b, 0xe7, 0xb9, 0xbd, 0xa8, 0xce, 0x83, 0xbd,
  0xbb, 0xe8, 0xb9, 0xbc, 0xef, 0xea, 0x08, 0x3e, 0x00, 0xbe, 0x8e, 0xbd,
  0xa5, 0xb5, 0x2a, 0xbe, 0x3a, 0x70, 0x8d, 0xbd, 0x04, 0xa4, 0x60, 0xbe,
  0x53, 0x81, 0x5b, 0xbd, 0xff, 0xea, 0x07, 0x3e, 0xfc, 0x0c, 0x56, 0xbe,
  0xb1, 0x54, 0x61, 0xbe, 0x5c, 0x8f, 0x38, 0xbe, 0x01, 0x10, 0xa4, 0x3d,
  0x6b, 0x0b, 0xff, 0x3d, 0x87, 0xe7, 0xcf, 0xbd, 0x5f, 0x31, 0x34, 0x3e,
  0x36, 0xcb, 0xbe, 0x3d, 0xba, 0xb5, 0xad, 0xbd, 0x47, 0x58, 0xc4, 0xbd,
  0xb8, 0xdf, 0x3d, 0xbe, 0xde, 0xd7, 0xa8, 0xbd, 0x40, 0x78, 0x73, 0xbc,
  0xc7, 0x2a, 0x38, 0x3d, 0x80, 0xc7, 0xcd, 0xbc, 0x80, 0x46, 0xd2, 0x3d,
  0x70, 0xbe, 0x53, 0x3d, 0x1e, 0x85, 0x58, 0xbe, 0xfd, 0x52, 0xfc, 0x3d,
  0xf3, 0x89, 0x13, 0xbe, 0x68, 0x21, 0x1d, 0xbe, 0xb1, 0x15, 0x56, 0xbe,
  0xc1, 0x96, 0x31, 0xbe, 0x6a, 0xbd, 0x42, 0x3d, 0x23, 0x7b, 0x3d, 0xbe,
  0x62, 0x2d, 0xdb, 0x3d, 0xeb, 0x1f, 0xa8, 0x3d, 0x91, 0xa7, 0x21, 0x3e,
  0x65, 0xdd, 0x31, 0xbe, 0x57, 0xfc, 0xa5, 0x3d, 0x70, 0x11, 0x10, 0xbe,
  0x66, 0xf6, 0x1b, 0xbe, 0xcc, 0x7a, 0x3c, 0xbd, 0x86, 0x40, 0x88, 0x3d,
  0x5b, 0xe4, 0x3b, 0x3e, 0x4c, 0xa1, 0x24, 0xbe, 0xe1, 0x04, 0x1c, 0xbe,
  0x7e, 0xc8, 0xf3, 0x3d, 0xb7, 0x54, 0x3b, 0x3e, 0x35, 0x0d, 0xce, 0xbd,
  0xe4, 0x3a, 0x14, 0x3e, 0x24, 0xcd, 0x61, 0xbe, 0xe1, 0x5f, 0x5b, 0xbe,
  0xf2, 0x96, 0x92, 0x3d, 0xdd, 0xa6, 0x44, 0x3e, 0xcb, 0x11, 0xdc, 0xbd,
  0x97, 0x36, 0xd8, 0x3d, 0x75, 0x7f, 0x5a, 0x3e, 0xcc, 0x39, 0x61, 0x3d,
  0x0c, 0xf5, 0x98, 0xbc, 0xd9, 0x81, 0x3c, 0x3e, 0x7b, 0x93, 0x42, 0xbe,
  0x20, 0x11, 0x3b, 0x3e, 0x78, 0x6c, 0xc4, 0x3c, 0x25, 0xff, 0xed, 0xbd,
  0x0e, 0xc5, 0xf6, 0xbc, 0x34, 0xce, 0x4f, 0xbd, 0x8b, 0x65, 0x61, 0xbe,
  0xdb, 0x63, 0xfb, 0xbc, 0x16, 0x4e, 0x21, 0x3d, 0x3e, 0x00, 0x9c, 0x3d,
  0xcc, 0xd2, 0x9a, 0x3d, 0xa9, 0xf1, 0x2e, 0x3e, 0x8e, 0xb2, 0x84, 0xbb,
  0xc6, 0x28, 0xfc, 0x3d, 0x11, 0x56, 0xd1, 0xbd, 0x59, 0x94, 0x5c, 0x3e,
  0x3c, 0xc6, 0x51, 0xbe, 0x00, 0x0c, 0x58, 0xbd, 0x9d, 0x1d, 0x5b, 0xbe,
  0xb5, 0x20, 0x28, 0xbd, 0x79, 0x40, 0x07, 0x3d, 0x78, 0xbe, 0x21, 0x3e,
  0x86, 0xa7, 0x80, 0xbd, 0x42, 0x01, 0x01, 0x3d, 0xe3, 0xca, 0xf4, 0x3d,
  0x88, 0xd7, 0x20, 0x3e, 0x23, 0x78, 0xf2, 0x3d, 0x48, 0x15, 0xe3, 0xbb,
  0x30, 0x6e, 0x0e, 0x3d, 0xf4, 0xd5, 0xa4, 0xbd, 0xcb, 0xc8, 0x38, 0x3e,
  0x2b, 0x91, 0x20, 0x3c, 0x17, 0xf8, 0xfe, 0xbd, 0xda, 0x32, 0x30, 0xbe,
  0x0d, 0x58, 0x5a, 0xbe, 0x8c, 0xdf, 0x6f, 0xbd, 0x22, 0x95, 0xe8, 0xbd,
  0x98, 0xbc, 0x22, 0x3e, 0x44, 0x96, 0xb7, 0xbc, 0xb6, 0x70, 0xe8, 0x3d,
  0xcd, 0x4c, 0x44, 0x3e, 0x5e, 0xc9, 0x12, 0xbe, 0x1b, 0x15, 0x3a, 0xbe,
  0x0d, 0x29, 0x2f, 0x3e, 0xab, 0x09, 0xdd, 0xbd, 0xec, 0xb4, 0x0d, 0x3d,
  0xf9, 0xa3, 0x8b, 0xbd, 0x80, 0xa6, 0x99, 0xbb, 0xe8, 0x47, 0xef, 0xbd,
  0xdf, 0xe7, 0xc7, 0xbd, 0xdd, 0x31, 0x13, 0x3e, 0x00, 0x9e, 0x6c, 0xbe,
  0x0a, 0x0b, 0x4a, 0xbe, 0xa8, 0x1e, 0x0b, 0xbe, 0xee, 0xea, 0xd3, 0xbd,
  0x57, 0x2b, 0x34, 0x3d, 0xc6, 0xfb, 0x6e, 0xbd, 0x15, 0xc0, 0x03, 0x3d,
  0xf0, 0x40, 0x59, 0x3d, 0x8e, 0xdc, 0x2f, 0xbe, 0x48, 0x7d, 0x6e, 0xbc,
  0x48, 0xc3, 0x25, 0x3e, 0x21, 0xcd, 0x42, 0xbd, 0x93, 0x5f, 0x6f, 0xbe,
  0x12, 0xd5, 0x64, 0xbe, 0x50, 0x7c, 0x3c, 0xbc, 0x69, 0xe9, 0x28, 0xbe,
  0x3b, 0x47, 0x54, 0xbe, 0x5b, 0x31, 0xe3, 0xbc, 0xf5, 0xb1, 0x5f, 0xbc,
  0x18, 0x95, 0x51, 0xbe, 0x7e, 0x78, 0x3c, 0xbd, 0x0a, 0xad, 0xa7, 0xbd,
  0x51, 0x42, 0x0a, 0xbe, 0x9e, 0xfe, 0x00, 0xbe, 0x2d, 0xb3, 0x1f, 0x3e,
  0xa8, 0xaa, 0x5b, 0xbe, 0x3e, 0xcb, 0x0b, 0x3e, 0x66, 0x5e, 0x96, 0x3d,
  0xce, 0x9f, 0x39, 0x3e, 0x09, 0xb0, 0xec, 0xbd, 0xfd, 0xb9, 0x15, 0x3e,
  0x49, 0x8f, 0x80, 0x3e, 0x34, 0x2d, 0xb9, 0x3d, 0xda, 0x60, 0xa4, 0x3e,
  0x00, 0x3d, 0x81, 0x3d, 0x04, 0x86, 0xd1, 0x3d, 0xdf, 0x81, 0x72, 0x3e,
  0x23, 0x00, 0x5f, 0x3e, 0xc5, 0x9e, 0x2b, 0x3e, 0x7c, 0xc5, 0xad, 0x3e,
  0xa6, 0x31, 0x74, 0x3e, 0x30, 0x94, 0xcd, 0x3e, 0x61, 0x82, 0xce, 0x3e,
  0x63, 0x38, 0x2b, 0x3e, 0x29, 0x7b, 0xbc, 0x3e, 0xd9, 0xc7, 0x63, 0x3d,
  0x6d, 0x91, 0xc3, 0x3e, 0xf8, 0xf3, 0x71, 0x3d, 0x23, 0x78, 0xce, 0x3e,
  0xbc, 0xf5, 0x4e, 0x3e, 0xe3, 0x79, 0x4a, 0x3e, 0xdf, 0x67, 0x3b, 0x3d,
  0x94, 0xcd, 0x80, 0x3e, 0xb8, 0x8c, 0x04, 0x3e, 0xc2, 0x21, 0x36, 0x3d,
  0x42, 0x6f, 0x01, 0x3e, 0x0e, 0xff, 0x12, 0x3e, 0xd6, 0x59, 0x90, 0x3e,
  0x1e, 0x15, 0x6b, 0x3e, 0xd7, 0x55, 0x2a, 0x3d, 0xef, 0xd2, 0xe0, 0x3e,
  0x07, 0x9a, 0x80, 0x3d, 0x37, 0x8e, 0x3d, 0x3e, 0x4d, 0x49, 0xb1, 0x3e,
  0x9a, 0xcf, 0xce, 0x3d, 0x77, 0x38, 0xb8, 0x3d, 0x31, 0x01, 0x0a, 0x3d,
  0xa2, 0x38, 0x6c, 0x3e, 0x2e, 0xd8, 0x19, 0x3e, 0x65, 0x0c, 0xd2, 0x3e,
  0x54, 0x64, 0x84, 0x3e, 0x70, 0x77, 0x84, 0x3d, 0x78, 0x11, 0x5a, 0x3e,
  0x01, 0xb7, 0x74, 0x3d, 0xe2, 0xdc, 0x2f, 0x3e, 0x44, 0x7f, 0x9b, 0x3e,
  0x89, 0xdf, 0x27, 0x3e, 0x60, 0x0f, 0xa4, 0x3e, 0xca, 0xf3, 0x50, 0x3e,
  0xb5, 0xac, 0xe7, 0x3e, 0xe5, 0x01, 0x24, 0x3e, 0x74, 0x3b, 0xd7, 0x3e,
  0xb2, 0x4a, 0x06, 0x3d, 0x4a, 0x35, 0x96, 0x3e, 0x15, 0xc8, 0x89, 0x3e,
  0x89, 0x9f, 0xb1, 0x3e, 0x2b, 0xe4, 0x48, 0x3e, 0xf1, 0x2b, 0xa9, 0x3d,
  0xba, 0x16, 0x8a, 0x3e, 0xa2, 0x91, 0x99, 0x3e, 0x36, 0xab, 0x47, 0x3e,
  0x54, 0xad, 0xfc, 0x3d, 0xda, 0xa5, 0x9c, 0xbc, 0xea, 0x88, 0x70, 0x3e,
  0x7d, 0xa4, 0x1f, 0x3d, 0x92, 0xdc, 0x78, 0x3d, 0x0a, 0xf5, 0x43, 0xbc,
  0x5e, 0x3e, 0x3c, 0x3e, 0x0c, 0x5b, 0x9c, 0x3d, 0x64, 0x61, 0xe5, 0x3d,
  0x53, 0xe8, 0x3d, 0xbd, 0x3b, 0xae, 0x11, 0xbe, 0x49, 0x55, 0x46, 0xbe,
  0xd5, 0xef, 0xac, 0x3d, 0xc0, 0xd0, 0xf1, 0x3c, 0xcb, 0x71, 0x2f, 0xbe,
  0xc0, 0x58, 0x85, 0x3d, 0x24, 0xf1, 0x04, 0x3e, 0x6b, 0xb8, 0x34, 0x3e,
  0xc0, 0xda, 0x2d, 0xbe, 0x1c, 0xbb, 0xd7, 0xbd, 0x34, 0xef, 0x03, 0x3e,
  0x4c, 0x5b, 0x77, 0xbd, 0x54, 0x55, 0x15, 0x3d, 0xc4, 0xc1, 0x47, 0x3d,
  0x2b, 0xc9, 0x52, 0xbc, 0xe2, 0x4d, 0x75, 0x3d, 0x36, 0x81, 0x1d, 0xbe,
  0x79, 0x5c, 0xa0, 0x3d, 0x5a, 0xeb, 0x75, 0xbc, 0x14, 0xdd, 0x46, 0x3c,
  0xbd, 0xee, 0xa2, 0xbd, 0x13, 0x84, 0x05, 0x3d, 0x4d, 0xc9, 0x1e, 0x3e,
  0x41, 0xe9, 0x0b, 0x3d, 0x44, 0xea, 0x29, 0xbd, 0xe1, 0x62, 0xb0, 0xbd,
  0xb2, 0xa5, 0x0f, 0x3e, 0x1e, 0xb5, 0xa2, 0xbd, 0xda, 0xee, 0xc2, 0x3d,
  0x1a, 0xed, 0xbf, 0x3c, 0xf7, 0x8e, 0xe7, 0xbc, 0x14, 0x0e, 0x22, 0xbe,
  0x1d, 0xad, 0xea, 0xba, 0x58, 0x88, 0x50, 0xbe, 0x54, 0x17, 0x3d, 0x3d,
  0xfc, 0x31, 0x9b, 0x3d, 0x14, 0x3a, 0x0e, 0xbe, 0xed, 0xdb, 0xfe, 0xbd,
  0x63, 0x22, 0x00, 0xbe, 0x98, 0x49, 0x1c, 0x3d, 0x6d, 0xfc, 0x3c, 0xbe,
  0x62, 0xe6, 0xb5, 0x3d, 0x76, 0xae, 0x40, 0xbe, 0xb9, 0xe6, 0x05, 0x3e,
  0x5b, 0x03, 0xa0, 0xbd, 0xd1, 0xe9, 0x86, 0xbc, 0x81, 0x48, 0xd1, 0x3d,
  0xad, 0xf8, 0x23, 0x3e, 0x8a, 0xe7, 0xd3, 0x3d, 0x62, 0x22, 0x5e, 0xbe,
  0x84, 0xb7, 0x44, 0xbe, 0x64, 0x8e, 0x03, 0x3d, 0xd7, 0x9e, 0x45, 0x3d,
  0x9e, 0x91, 0x14, 0xbe, 0xaf, 0x07, 0xb8, 0xbd, 0x64, 0xdd, 0x0d, 0xbe,
  0x86, 0xab, 0xd4, 0x3d, 0x1b, 0x58, 0x27, 0x3e, 0xcc, 0x2d, 0x9b, 0x3e,
  0x47, 0x81, 0xc5, 0x3d, 0x2f, 0x08, 0xbc, 0x3e, 0xf0, 0x08, 0x04, 0x3e,
  0x97, 0xcc, 0xa7, 0x3e, 0xaf, 0x77, 0xb7, 0x3c, 0xc3, 0x0b, 0xa6, 0x3e,
  0x88, 0x65, 0xa3, 0x3e, 0xef, 0x77, 0xc5, 0x3e, 0xc9, 0x71, 0x0a, 0x3e,
  0xcc, 0x9d, 0xa4, 0x3d, 0x42, 0x5a, 0xc7, 0x3e, 0x5e, 0x58, 0xad, 0x3e,
  0x90, 0x50, 0xdd, 0x3d, 0x4d, 0xf3, 0xb6, 0xbd, 0xb0, 0xf0, 0x92, 0x3e,
  0x38, 0x8b, 0x57, 0x3e, 0x8c, 0x1e, 0xc4, 0x3e, 0x4e, 0x2d, 0xd4, 0x3d,
  0x40, 0x43, 0xbc, 0x3e, 0x88, 0x84, 0x13, 0x3e, 0x37, 0xaa, 0x80, 0x3e,
  0xa0, 0x1d, 0x68, 0x3d, 0xec, 0x92, 0xcd, 0x3d, 0x3c, 0xac, 0x0e, 0x3d,
  0x0f, 0x08, 0x89, 0x3e, 0x17, 0xb4, 0x9c, 0x3e, 0x71, 0x55, 0x85, 0x3e,
  0xcb, 0xbf, 0x09, 0x3e, 0x12, 0x94, 0xaf, 0x3e, 0xf8, 0xc7, 0xa4, 0x3e,
  0xf6, 0x83, 0x6a, 0x3e, 0x07, 0xeb, 0xea, 0x3d, 0x7f, 0xea, 0x00, 0x3f,
  0xa6, 0xfe, 0x36, 0x3e, 0x6a, 0x3a, 0x58, 0x3e, 0xc6, 0x3f, 0x0e, 0x3e,
  0xfe, 0x5b, 0xae, 0x3d, 0x89, 0x4f, 0x6b, 0x3e, 0x31, 0x54, 0x9b, 0x3e,
  0xf1, 0xdb, 0x64, 0x3e, 0x2f, 0xb3, 0xcf, 0x3e, 0xee, 0xfb, 0x2a, 0x3e,
  0xc4, 0x45, 0x4a, 0x3e, 0x5a, 0x14, 0x53, 0x3e, 0x08, 0xd6, 0x93, 0x3e,
  0x0f, 0x4c, 0xd1, 0x3d, 0xa2, 0x86, 0xad, 0x3e, 0x42, 0x02, 0x46, 0x3e,
  0xcc, 0x6f, 0x04, 0x3e, 0x04, 0x41, 0x97, 0x3e, 0xe7, 0x98, 0x19, 0x3e,
  0x8c, 0x9d, 0x6e, 0x3e, 0x8f, 0x38, 0x80, 0x3e, 0xda, 0x2e, 0xb4, 0x3e,
  0xa2, 0x5a, 0x66, 0x3e, 0xef, 0x9b, 0x86, 0xbc, 0x23, 0x40, 0x88, 0x3e,
  0x19, 0xae, 0x65, 0x3e, 0xfb, 0xb0, 0x31, 0x3e, 0x8c, 0xe2, 0x8c, 0x3e,
  0xc4, 0x43, 0x2b, 0x3e, 0x12, 0xec, 0xe5, 0x3b, 0xe2, 0x07, 0xd9, 0x3c,
  0x06, 0x0d, 0x7a, 0xbd, 0x2e, 0x6c, 0x84, 0x3d, 0xa0, 0xae, 0xcb, 0xbc,
  0x21, 0xad, 0x3e, 0xbe, 0xbc, 0x43, 0x27, 0xbe, 0x84, 0xdf, 0x9a, 0xbd,
  0xe0, 0x20, 0xd9, 0x3c, 0x30, 0xa1, 0xb7, 0xbd, 0x13, 0xf7, 0x5f, 0x3d,
  0x8a, 0x41, 0x15, 0xbd, 0x02, 0x9f, 0x10, 0x3d, 0x42, 0x7a, 0x59, 0xbe,
  0x72, 0x9a, 0xf4, 0x3d, 0xb1, 0x7d, 0x04, 0x3d, 0x22, 0x99, 0x29, 0x3e,
  0x93, 0x65, 0x35, 0x3e, 0xa7, 0x00, 0xb2, 0x3d, 0x01, 0xbe, 0xc6, 0x3d,
  0x3a, 0x9f, 0xc1, 0xbc, 0x60, 0xba, 0x2e, 0xbd, 0x04, 0xfe, 0x3e, 0x3d,
  0x99, 0x11, 0xd7, 0x3d, 0xad, 0xaa, 0xb0, 0xbd, 0x5e, 0x60, 0xf8, 0xbd,
  0x61, 0xd5, 0x07, 0x3e, 0x20, 0x72, 0x1e, 0xbe, 0xf7, 0xff, 0x20, 0x3e,
  0x00, 0xe7, 0x50, 0xbe, 0xa8, 0x86, 0x45, 0xbe, 0xdd, 0x41, 0xec, 0xbd,
  0xc4, 0xf6, 0x1d, 0x3d, 0xbe, 0xb8, 0x10, 0x3d, 0x5a, 0x4a, 0x4a, 0x3e,
  0x67, 0x7a, 0x55, 0xbe, 0x45, 0x2d, 0x50, 0x3e, 0x40, 0xab, 0xae, 0xbd,
  0x7e, 0x8d, 0x44, 0x3d, 0x97, 0x0c, 0xb4, 0xbc, 0x5c, 0xa5, 0x17, 0xbe,
  0xd2, 0xf5, 0x51, 0xbe, 0x80, 0x4c, 0x29, 0xbe, 0xbc, 0x48, 0x02, 0xbd,
  0xbd, 0x60, 0x4a, 0xbe, 0xef, 0x91, 0x35, 0x3e, 0x03, 0xf6, 0xa2, 0xbd,
  0x84, 0x81, 0x1e, 0xbd, 0xcb, 0xac, 0x5b, 0xbe, 0x2f, 0x71, 0x31, 0x3e,
  0x69, 0x67, 0x5c, 0x3e, 0x66, 0xb0, 0x8a, 0xbd, 0xa1, 0x53, 0x0c, 0xbe,
  0x36, 0x96, 0x1b, 0xbe, 0xaf, 0x39, 0x33, 0xbe, 0x07, 0x08, 0x2e, 0x3e,
  0xb1, 0xbb, 0x04, 0x3c, 0xf0, 0x40, 0x1e, 0xbd, 0xb0, 0xa3, 0x2c, 0x3e,
  0xb2, 0x34, 0x98, 0x3d, 0x62, 0x74, 0x77, 0x3d, 0xa9, 0x0a, 0x40, 0xbe,
  0x0e, 0x32, 0xd4, 0xbd, 0x42, 0xea, 0x35, 0xbe, 0xef, 0x07, 0xdf, 0xbd,
  0xb7, 0x21, 0xba, 0x3c, 0xef, 0xa9, 0x92, 0x3e, 0xae, 0xe9, 0x4d, 0x3d,
  0x66, 0x8b, 0x38, 0xbd, 0x93, 0xa5, 0x87, 0x3d, 0xd9, 0xda, 0x84, 0x3e,
  0x1f, 0x06, 0xd3, 0x3d, 0xa4, 0xe5, 0xa1, 0x3e, 0xf8, 0xe7, 0x4d, 0x3e,
  0x59, 0xe1, 0x2f, 0x3e, 0xc8, 0x24, 0x53, 0x3e, 0xc7, 0xed, 0x5c, 0x3e,
  0x56, 0x8f, 0x3a, 0x3e, 0x2e, 0xea, 0x93, 0x3e, 0x2b, 0xf3, 0x13, 0x3e,
  0x87, 0xf9, 0xa9, 0xbd, 0xa2, 0x0a, 0x19, 0x3e, 0xd9, 0x99, 0x61, 0x3e,
  0x62, 0xc3, 0xd3, 0x3e, 0x5a, 0xdd, 0xad, 0x3e, 0x18, 0xc1, 0x4d, 0xbd,
  0x96, 0x69, 0xe9, 0x3d, 0x03, 0x88, 0xab, 0x3e, 0xf1, 0xd3, 0x24, 0xbd,
  0x2d, 0x95, 0xc5, 0xbc, 0xbd, 0x59, 0xa5, 0x3e, 0x14, 0x00, 0x9f, 0x3e,
  0xbd, 0x6c, 0xdd, 0x3d, 0x8f, 0x07, 0xef, 0x3d, 0x32, 0x42, 0x9a, 0x3e,
  0x3b, 0xc8, 0x0e, 0x3e, 0xb7, 0x63, 0xce, 0x3e, 0xe4, 0x1a, 0xf0, 0x3e,
  0x01, 0xc8, 0x8f, 0x3e, 0xbb, 0x96, 0xbf, 0x3e, 0x58, 0x5a, 0xf9, 0x3c,
  0x2f, 0xb8, 0xc5, 0x3e, 0x4a, 0x12, 0xc1, 0x3c, 0xbf, 0x4c, 0xf4, 0x3e,
  0x52, 0x53, 0x6b, 0x3e, 0xfe, 0x86, 0xa9, 0x3e, 0x23, 0xb7, 0x36, 0x3e,
  0xf7, 0x56, 0xb7, 0x3e, 0x2d, 0xf1, 0x81, 0x3e, 0xb4, 0x69, 0xc3, 0x3d,
  0x17, 0xe5, 0x05, 0x3e, 0x53, 0x6a, 0x17, 0x3e, 0x93, 0xfc, 0x56, 0x3e,
  0x55, 0x89, 0x09, 0x3e, 0xae, 0x60, 0x46, 0x3e, 0xce, 0xd9, 0xe2, 0x3e,
  0x56, 0x8a, 0xb5, 0x3e, 0xd2, 0x90, 0x79, 0x3e, 0x34, 0x9f, 0x9c, 0x3d,
  0x42, 0xe4, 0x72, 0x3d, 0xd7, 0xb1, 0x21, 0x3c, 0x2e, 0x86, 0x3c, 0x3e,
  0xae, 0x9f, 0x93, 0x3e, 0xca, 0x67, 0xd9, 0x3e, 0x9f, 0xbc, 0xeb, 0x3d,
  0x71, 0x8a, 0xaf, 0x3e, 0xfb, 0x50, 0x22, 0x3e, 0xdb, 0xef, 0xb9, 0x3d,
  0xbd, 0xab, 0xab, 0x3d, 0x66, 0xd3, 0x18, 0x3e, 0x38, 0x9c, 0xf7, 0x3d,
  0x18, 0x31, 0x42, 0xbe, 0xa1, 0xe2, 0xa8, 0xbd, 0x4f, 0xf4, 0x30, 0x3e,
  0xa0, 0x5a, 0x6c, 0xbe, 0xfe, 0x95, 0x83, 0xbd, 0x9d, 0x8d, 0xd9, 0xbc,
  0x83, 0x52, 0x49, 0x3e, 0x22, 0x1c, 0x56, 0x3e, 0xe7, 0x7a, 0x10, 0xbe,
  0x02, 0x56, 0x98, 0xbd, 0xac, 0xf1, 0x30, 0x3e, 0x4a, 0xb7, 0x0e, 0xbe,
  0xe4, 0x03, 0x09, 0xbe, 0x87, 0xd4, 0x91, 0xbd, 0xa9, 0x90, 0x38, 0xbe,
  0x6a, 0xc4, 0xd8, 0x3d, 0x00, 0x82, 0xc4, 0x3c, 0xb0, 0xa0, 0x9c, 0x3d,
  0x5a, 0xc8, 0x73, 0x3d, 0x4a, 0xe0, 0x54, 0x3e, 0x83, 0xc4, 0xfe, 0x3b,
  0xfc, 0xe7, 0x4a, 0x3d, 0xd1, 0xb4, 0xea, 0x3d, 0x6f, 0x53, 0xc3, 0x3d,
  0x74, 0x7d, 0xb5, 0x3c, 0x5b, 0xbe, 0x3c, 0xbe, 0x69, 0x87, 0x40, 0x3e,
  0xea, 0xd9, 0x58, 0xbc, 0x91, 0x1c, 0x37, 0xbd, 0x8a, 0x71, 0x0a, 0x3e,
  0xf1, 0xa2, 0x33, 0xbe, 0x36, 0x9c, 0x42, 0x3d, 0x1e, 0x2c, 0x5a, 0xbe,
  0x08, 0xb2, 0x4b, 0xbd, 0xce, 0xe7, 0xc9, 0x3d, 0x83, 0xf1, 0xaf, 0xbd,
  0x9e, 0xc5, 0x38, 0x3e, 0x38, 0x8a, 0x7c, 0xbe, 0x0a, 0xab, 0x72, 0x3d,
  0x36, 0x47, 0x3c, 0xbc, 0x4b, 0x0f, 0xe7, 0x3d, 0x8c, 0x61, 0x38, 0x3d,
  0xec, 0x90, 0x35, 0xbe, 0xa6, 0xcb, 0x9c, 0xbd, 0x29, 0x1b, 0xa2, 0xbd,
  0xf5, 0xf5, 0x31, 0xbe, 0xf4, 0x41, 0x2c, 0xbe, 0xbd, 0x56, 0x7d, 0x3b,
  0x76, 0x86, 0xb7, 0x3b, 0xdd, 0xb2, 0x90, 0xbc, 0xa9, 0xf4, 0xec, 0xbc,
  0xce, 0x06, 0x2c, 0xbe, 0xd8, 0xcb, 0x92, 0xba, 0x6e, 0xfc, 0x1f, 0xbd,
  0x0c, 0x44, 0xd6, 0xbd, 0x00, 0xa6, 0xce, 0xbd, 0xf3, 0x4e, 0x8f, 0xbc,
  0x63, 0xb6, 0x50, 0xbe, 0x24, 0x46, 0x8f, 0xbd, 0xf9, 0xf9, 0xd6, 0x3b,
  0x1e, 0xf2, 0x2b, 0xbd, 0x5f, 0xf5, 0x0f, 0xbe, 0x4b, 0xf8, 0xa9, 0x3c,
  0x05, 0x14, 0x92, 0x3e, 0x26, 0x62, 0xcc, 0x3e, 0xc4, 0x0b, 0xf7, 0x3d,
  0x6e, 0x29, 0x15, 0x3e, 0xf2, 0x20, 0xc9, 0x3e, 0xac, 0x90, 0xee, 0x3d,
  0x15, 0x39, 0x9e, 0x3e, 0xfd, 0x62, 0xa5, 0x3e, 0x80, 0x25, 0xe6, 0x3d,
  0x45, 0x4c, 0xac, 0x3c, 0x74, 0xbb, 0xb6, 0x3e, 0xbf, 0xdd, 0xeb, 0x3d,
  0x6b, 0x9a, 0x87, 0x3e, 0xf4, 0x5d, 0x97, 0x3e, 0x13, 0x7a, 0x0b, 0x3e,
  0xe7, 0x2f, 0x55, 0x3e, 0x96, 0x9a, 0xf0, 0x3e, 0x99, 0x50, 0x90, 0x3e,
  0x5d, 0x48, 0xbc, 0x3d, 0xa7, 0x90, 0x86, 0x3e, 0x36, 0x6c, 0x36, 0x3e,
  0xf1, 0xca, 0xb9, 0x3e, 0x28, 0x52, 0xfa, 0x3a, 0x8a, 0xcd, 0x56, 0x3d,
  0x89, 0x2a, 0x80, 0xbc, 0x6f, 0x1c, 0x96, 0x3e, 0xdb, 0x71, 0xe4, 0xbd,
  0x62, 0xf9, 0xcf, 0x3d, 0x9d, 0x24, 0xb2, 0x3d, 0xd9, 0xdd, 0x3b, 0x3e,
  0x68, 0xc5, 0x9e, 0x3e, 0x3a, 0x23, 0xe5, 0x3e, 0xb6, 0xcb, 0x4f, 0x3e,
  0x9c, 0xaf, 0x38, 0x3e, 0xe7, 0x63, 0x9a, 0x3e, 0x1c, 0x7c, 0xd5, 0x3e,
  0x67, 0xb9, 0x9f, 0x3e, 0xab, 0xa4, 0x52, 0x3e, 0x06, 0xb7, 0xde, 0x3e,
  0x9e, 0xb7, 0xb5, 0x3d, 0xd7, 0x73, 0xe6, 0xbc, 0x55, 0xf8, 0x03, 0x3d,
  0x20, 0xa0, 0x1a, 0x3e, 0xe1, 0x1b, 0xc0, 0x3d, 0x5f, 0xcd, 0x22, 0x3e,
  0x67, 0x1f, 0x10, 0x3e, 0x14, 0x53, 0xe1, 0x3e, 0xc3, 0xcb, 0xd5, 0x3e,
  0xc2, 0x99, 0x92, 0x3e, 0x72, 0x1e, 0xa5, 0x3e, 0x3b, 0x48, 0x32, 0x3e,
  0x6e, 0xdd, 0x64, 0x3e, 0xe9, 0x9b, 0x1d, 0x3e, 0x73, 0x35, 0x88, 0x3d,
  0x0e, 0x22, 0xb7, 0x3e, 0x69, 0x0e, 0x82, 0x3e, 0x3b, 0x73, 0xf6, 0x3d,
  0x97, 0xc8, 0xb5, 0x3e, 0x39, 0xa5, 0x6e, 0x3e, 0x51, 0xf0, 0x03, 0x3e,
  0x50, 0xa6, 0x75, 0x3d, 0xce, 0x64, 0x54, 0x3a, 0xa0, 0x23, 0xa8, 0x3d,
  0x39, 0x16, 0xa5, 0xbd, 0x17, 0x41, 0x47, 0xbe, 0xfb, 0xa2, 0x03, 0xbb,
  0x02, 0xca, 0x0b, 0xbe, 0x80, 0x46, 0x4a, 0xbd, 0x0e, 0x98, 0xf0, 0xbc,
  0x3f, 0x81, 0x53, 0xbe, 0xad, 0xf0, 0x4b, 0x3d, 0xc6, 0x16, 0x8b, 0x3d,
  0x9f, 0x40, 0x1f, 0x3e, 0xaa, 0x15, 0xae, 0xbd, 0x90, 0x27, 0x6b, 0x3c,
  0xc6, 0xd2, 0x12, 0xbe, 0xff, 0x4b, 0x3c, 0xbe, 0x40, 0xfe, 0xeb, 0x3c,
  0x88, 0xac, 0x33, 0xbe, 0x79, 0xc4, 0xdb, 0xbd, 0xf9, 0x7c, 0x37, 0x3e,
  0x20, 0xe3, 0x60, 0xbe, 0xf4, 0x76, 0x3c, 0x3c, 0x7e, 0x1f, 0xf9, 0xba,
  0xe8, 0x71, 0x0d, 0xbe, 0x20, 0xf9, 0x36, 0x3c, 0x10, 0x2b, 0x53, 0xbe,
  0x60, 0xcd, 0x24, 0xbd, 0x96, 0x8c, 0xa4, 0xbd, 0xb2, 0xf9, 0x15, 0xbe,
  0xf8, 0xe3, 0x88, 0xbd, 0x2a, 0x5d, 0x54, 0xbe, 0xa4, 0xf2, 0x03, 0xbe,
  0xa0, 0xba, 0x13, 0xbe, 0xf6, 0x2b, 0x28, 0xbe, 0xb2, 0x5d, 0x82, 0xbd,
  0x18, 0x30, 0xe7, 0xbd, 0x15, 0xc6, 0xd4, 0x3d, 0x43, 0x06, 0x56, 0x3e,
  0x68, 0x21, 0x25, 0xbe, 0xe8, 0x4c, 0xdd, 0xbc, 0x0b, 0x03, 0x89, 0x3d,
  0xfa, 0xdb, 0x0e, 0xbe, 0xc0, 0x7d, 0xae, 0xbd, 0x9a, 0xd2, 0xc3, 0x3d,
  0xf6, 0x08, 0x92, 0xbd, 0x49, 0xf7, 0xfd, 0x3d, 0x7c, 0x19, 0x58, 0x3d,
  0xc0, 0x6f, 0x8d, 0x3c, 0x6f, 0xbb, 0x82, 0x3d, 0xcc, 0x9b, 0x61, 0x3c,
  0x3a, 0x42, 0xa6, 0xbd, 0xa2, 0x25, 0x1d, 0x3e, 0xa8, 0x01, 0x1d, 0xbe,
  0x12, 0xe0, 0x26, 0x3e, 0xc9, 0xf9, 0xb1, 0x3d, 0xe8, 0x72, 0x13, 0xbe,
  0x8b, 0x37, 0xbf, 0xbd, 0x44, 0x1f, 0x39, 0xbe, 0x8e, 0xc5, 0x08, 0xbe,
  0x6e, 0x6c, 0x8a, 0x3d, 0x07, 0xe6, 0x60, 0xbd, 0x24, 0xb4, 0x76, 0x3d,
  0x6a, 0x38, 0x9a, 0x3d, 0x1f, 0x8a, 0x3e, 0x3e, 0x0f, 0x0b, 0x5e, 0xbe,
  0x84, 0xe5, 0x62, 0xbd, 0x5a, 0xc2, 0x60, 0xbe, 0x51, 0xbc, 0x0d, 0x3c,
  0x8c, 0x01, 0x3b, 0xbc, 0x5d, 0x94, 0x22, 0xbe, 0xfb, 0xdd, 0xb8, 0xbd,
  0x80, 0x13, 0x04, 0x3a, 0x23, 0x2b, 0x35, 0xbe, 0xee, 0x60, 0x01, 0x3e,
  0x84, 0x11, 0xb8, 0x3c, 0xec, 0xed, 0x9f, 0xbd, 0x06, 0x3f, 0x83, 0xbd,
  0x42, 0xd8, 0x51, 0xbe, 0x9e, 0x53, 0x45, 0x3d, 0xa8, 0xcf, 0xe3, 0xbd,
  0xc5, 0xcd, 0x4e, 0xbe, 0xa0, 0xd5, 0x3b, 0xbe, 0x8b, 0xe2, 0x15, 0x3e,
  0xd8, 0x89, 0x51, 0xbe, 0xfe, 0xad, 0xdf, 0x3d, 0xeb, 0xac, 0x4a, 0x3d,
  0xbc, 0x09, 0x16, 0xbe, 0xe8, 0x70, 0x32, 0x3e, 0x0f, 0xd0, 0xcc, 0x3d,
  0x61, 0xd6, 0x32, 0x3e, 0x86, 0xca, 0xeb, 0xbb, 0x5b, 0xbe, 0x2e, 0x3e,
  0x65, 0x78, 0x06, 0x3c, 0xb6, 0x6d, 0x19, 0x3d, 0x96, 0x37, 0x3f, 0xbe,
  0xc9, 0x31, 0x60, 0xbe, 0x57, 0xba, 0x0b, 0xbe, 0xec, 0x37, 0x13, 0xbe,
  0xae, 0xa4, 0x93, 0x3d, 0xf4, 0x62, 0x7c, 0xbd, 0x95, 0x27, 0x03, 0xbe,
  0xa2, 0xcd, 0x8b, 0x3c, 0x9c, 0x06, 0x56, 0xbd, 0x06, 0xde, 0x2d, 0xbe,
  0x7e, 0x99, 0x42, 0xbe, 0x54, 0x40, 0x5c, 0xbe, 0xda, 0x84, 0xd8, 0x3d,
  0x28, 0x02, 0x07, 0xbd, 0x10, 0x1e, 0x3f, 0xbe, 0x4c, 0x1a, 0x51, 0xbe,
  0xf3, 0xbd, 0xb1, 0x3d, 0x42, 0x01, 0xac, 0x3d, 0x51, 0x00, 0x26, 0x3e,
  0x64, 0x59, 0x36, 0x3e, 0x6c, 0x28, 0x07, 0xbe, 0x28, 0x45, 0xd9, 0xbd,
  0x31, 0xa4, 0x23, 0x3e, 0x48, 0x67, 0xb6, 0x3d, 0x5c, 0x26, 0x21, 0x3e,
  0x3b, 0x0d, 0x59, 0xbe, 0x10, 0xa2, 0x1f, 0xbe, 0xb2, 0x6b, 0xaf, 0xbd,
  0x71, 0x5e, 0x47, 0xbe, 0x40, 0xda, 0xb8, 0x3b, 0x1d, 0xc5, 0x3c, 0x3e,
  0xe0, 0x17, 0x63, 0x3c, 0xd8, 0x59, 0xcf, 0x3c, 0xc6, 0x17, 0x92, 0x3d,
  0x74, 0x58, 0x7b, 0x3d, 0xc9, 0x9a, 0x2d, 0xbe, 0x5c, 0x08, 0x51, 0xbe,
  0x55, 0xb7, 0x3e, 0x3e, 0x97, 0x03, 0x51, 0xbd, 0xf7, 0x1b, 0xfc, 0x3c,
  0x75, 0x78, 0x06, 0x3e, 0x04, 0xb0, 0x23, 0x3e, 0xd8, 0x79, 0x84, 0xbd,
  0xef, 0xe6, 0x18, 0xbd, 0x96, 0xf2, 0xd2, 0xbd, 0x90, 0xf6, 0xf9, 0xbc,
  0x07, 0x6f, 0xe4, 0xbd, 0x12, 0x7b, 0x3e, 0x3d, 0xac, 0xbb, 0x1d, 0x3e,
  0x5e, 0xc2, 0xbb, 0xbd, 0xa9, 0x8f, 0xd3, 0xbd, 0xdf, 0x2d, 0x76, 0xbd,
  0xde, 0x03, 0x2d, 0xbe, 0x5c, 0xb8, 0x39, 0xbe, 0x25, 0xd1, 0x45, 0xbe,
  0xe7, 0x79, 0xa9, 0xbd, 0x05, 0x5e, 0xf2, 0x3d, 0x40, 0xee, 0xeb, 0xbd,
  0xbf, 0x75, 0x1f, 0x3e, 0x94, 0x7a, 0xe1, 0x3c, 0xa1, 0xba, 0x95, 0x3d,
  0x12, 0xff, 0xe0, 0xbc, 0x0f, 0x83, 0x26, 0xbe, 0x4e, 0x22, 0x51, 0xbd,
  0xf5, 0xa4, 0x3e, 0xbe, 0xaf, 0x0a, 0x82, 0xbd, 0x70, 0xe4, 0xe8, 0xbc,
  0x12, 0xdd, 0x09, 0x3e, 0x86, 0xd5, 0xa1, 0xbd, 0x27, 0x9c, 0xc0, 0x3d,
  0x63, 0x27, 0x3a, 0x3e, 0x80, 0xdc, 0xb2, 0xbd, 0xa1, 0x6d, 0x8c, 0x3d,
  0x99, 0x02, 0x86, 0xbd, 0xf4, 0xa6, 0xac, 0x3d, 0x5e, 0xb9, 0x04, 0x3e,
  0xe5, 0xc1, 0x13, 0x3e, 0x2d, 0x40, 0xb7, 0xbb, 0x2d, 0xb6, 0x08, 0x3e,
  0x49, 0x7b, 0x62, 0x3d, 0x3f, 0x6f, 0x45, 0xbe, 0xb6, 0x56, 0xcc, 0x3c,
  0x9c, 0x7d, 0x5d, 0xbe, 0xb1, 0xc4, 0x94, 0x3d, 0xde, 0xea, 0x3b, 0xbe,
  0x94, 0x13, 0xc9, 0xbd, 0x5c, 0x75, 0x9c, 0x3d, 0xa4, 0x16, 0x55, 0xbe,
  0x70, 0x37, 0x30, 0x3e, 0x41, 0xaa, 0x6e, 0xbd, 0x66, 0xb8, 0x14, 0xbc,
  0x4d, 0xdf, 0xe5, 0xbd, 0x34, 0x4b, 0xf8, 0x3d, 0x4a, 0x46, 0x32, 0x3e,
  0xfd, 0xf8, 0x3a, 0xbe, 0x94, 0xab, 0x20, 0x3e, 0x26, 0xea, 0xd6, 0x3d,
  0x4c, 0xfb, 0x1a, 0xbe, 0x68, 0xc0, 0x4b, 0x3e, 0x36, 0xd9, 0x56, 0xbe,
  0x26, 0x2d, 0x87, 0x3e, 0x9a, 0x93, 0x2e, 0x3e, 0x9f, 0xfc, 0x9d, 0x3e,
  0x21, 0xe1, 0x57, 0xbd, 0xb0, 0x8a, 0xd0, 0xbc, 0xd7, 0x06, 0xbb, 0x3e,
  0xfe, 0x80, 0x8a, 0x3e, 0x05, 0xed, 0xba, 0xbd, 0x71, 0x31, 0xa1, 0x3e,
  0xaf, 0x97, 0xbb, 0x3e, 0x4e, 0x0c, 0x35, 0x3e, 0x0e, 0x1d, 0x04, 0xbc,
